{"version":"1.0","truncation":null,"padding":null,"added_tokens":[{"id":0,"special":true,"content":"[UNK]","single_word":false,"lstrip":false,"rstrip":false,"normalized":false},{"id":1,"special":true,"content":"[CLS]","single_word":false,"lstrip":false,"rstrip":false,"normalized":false},{"id":2,"special":true,"content":"[SEP]","single_word":false,"lstrip":false,"rstrip":false,"normalized":false},{"id":3,"special":true,"content":"[PAD]","single_word":false,"lstrip":false,"rstrip":false,"normalized":false},{"id":4,"special":true,"content":"[MASK]","single_word":false,"lstrip":false,"rstrip":false,"normalized":false}],"normalizer":null,"pre_tokenizer":{"type":"Whitespace"},"post_processor":null,"decoder":null,"model":{"type":"BPE","dropout":null,"unk_token":"[UNK]","continuing_subword_prefix":null,"end_of_word_suffix":null,"fuse_unk":false,"vocab":{"[UNK]":0,"[CLS]":1,"[SEP]":2,"[PAD]":3,"[MASK]":4,"!":5,"\"":6,"#":7,"%":8,"&":9,"'":10,"(":11,")":12,"*":13,"+":14,",":15,"-":16,".":17,"0":18,"1":19,"2":20,"3":21,"4":22,"5":23,"6":24,"7":25,"8":26,"9":27,":":28,";":29,"<":30,"=":31,">":32,"?":33,"@":34,"[":35,"\\":36,"]":37,"_":38,"`":39,"a":40,"b":41,"c":42,"d":43,"e":44,"f":45,"g":46,"h":47,"i":48,"j":49,"k":50,"l":51,"m":52,"n":53,"o":54,"p":55,"q":56,"r":57,"s":58,"t":59,"u":60,"v":61,"w":62,"x":63,"y":64,"z":65,"{":66,"|":67,"}":68,"~":69,"°":70,"±":71,"²":72,"è":73,"é":74,"ö":75,"ĺ":76,"،":77,"٫":78,"​":79,"–":80,"—":81,"‘":82,"’":83,"“":84,"”":85,"•":86,"‬":87,"‭":88,"⁰":89,"嘢":90,"好":91,"﻿":92,"an":93,"ar":94,"ng":95,"ang":96,"ra":97,"at":98,"am":99,"al":100,"ya":101,"ke":102,"as":103,"no":104,"er":105,"en":106,"ur":107,"in":108,"ung":109,"rt":110,"ah":111,"ci":112,"el":113,"ak":114,"ti":115,"su":116,"ko":117,"on":118,"raya":119,"ad":120,"bu":121,"ja":122,"bar":123,"ut":124,"em":125,"ul":126,"or":127,"ara":128,"ri":129,"es":130,"ta":131,"eng":132,"ok":133,"un":134,"ari":135,"ii":136,"ka":137,"rw":138,"kel":139,"to":140,"kar":141,"ma":142,"si":143,"di":144,"jo":145,"per":146,"um":147,"us":148,"tan":149,"jl":150,"ed":151,"mur":152,"pa":153,"ba":154,"sel":155,"pan":156,"11":157,"ek":158,"uk":159,"jaya":160,"tam":161,"eg":162,"sa":163,"li":164,"bo":165,"ati":166,"atan":167,"ban":168,"barat":169,"timur":170,"ind":171,"10":172,"la":173,"ali":174,"asi":175,"ro":176,"sari":177,"utara":178,"et":179,"12":180,"da":181,"gg":182,"is":183,"man":184,"po":185,"se":186,"bang":187,"lo":188,"ing":189,"amp":190,"selatan":191,"baru":192,"mo":193,"it":194,"war":195,"pon":196,"mas":197,"re":198,"ha":199,"pas":200,"13":201,"jati":202,"15":203,"ga":204,"toko":205,"14":206,"id":207,"wa":208,"bi":209,"kota":210,"bl":211,"go":212,"pasar":213,"do":214,"16":215,"so":216,"bat":217,"pu":218,"teng":219,"de":220,"ai":221,"17":222,"dok":223,"pe":224,"mp":225,"bak":226,"end":227,"kali":228,"ag":229,"me":230,"wi":231,"blok":232,"mu":233,"angan":234,"ji":235,"wo":236,"bon":237,"mar":238,"taman":239,"jung":240,"yu":241,"angg":242,"iii":243,"karang":244,"ter":245,"mi":246,"and":247,"indah":248,"te":249,"rah":250,"pt":251,"tu":252,"le":253,"med":254,"ser":255,"pur":256,"yo":257,"20":258,"gun":259,"mad":260,"pondok":261,"gi":262,"ana":263,"ama":264,"be":265,"ber":266,"pak":267,"sem":268,"kem":269,"perum":270,"mul":271,"yan":272,"hi":273,"des":274,"har":275,"par":276,"ho":277,"co":278,"lu":279,"kan":280,"bek":281,"medan":282,"gad":283,"cip":284,"ki":285,"02":286,"du":287,"vi":288,"ku":289,"gu":290,"pang":291,"adi":292,"tanjung":293,"desa":294,"suk":295,"pal":296,"oran":297,"pad":298,"ged":299,"saw":300,"18":301,"pi":302,"dur":303,"pen":304,"den":305,"alam":306,"tor":307,"ca":308,"pul":309,"bekasi":310,"na":311,"kebon":312,"tengah":313,"mat":314,"sam":315,"iv":316,"19":317,"ran":318,"alan":319,"ce":320,"res":321,"mak":322,"bun":323,"pra":324,"bal":325,"ru":326,"cil":327,"bel":328,"ia":329,"batu":330,"22":331,"rejo":332,"tel":333,"jar":334,"gor":335,"ngan":336,"ken":337,"sun":338,"suka":339,"ahan":340,"30":341,"kamp":342,"men":343,"buk":344,"jend":345,"neg":346,"ju":347,"agung":348,"mer":349,"bin":350,"dan":351,"komp":352,"pri":353,"gang":354,"kec":355,"wang":356,"apa":357,"st":358,"ala":359,"uh":360,"mus":361,"mel":362,"sudi":363,"40":364,"sela":365,"haji":366,"jer":367,"ant":368,"jam":369,"dar":370,"yoran":371,"oro":372,"cem":373,"kelapa":374,"23":375,"25":376,"sal":377,"yam":378,"we":379,"sung":380,"inang":381,"gal":382,"akar":383,"tanah":384,"teg":385,"gar":386,"sum":387,"24":388,"ud":389,"kra":390,"pem":391,"wono":392,"kut":393,"bung":394,"put":395,"ben":396,"dung":397,"gunung":398,"ik":399,"dr":400,"pat":401,"lan":402,"bogor":403,"bes":404,"sd":405,"ten":406,"ab":407,"lam":408,"tang":409,"tem":410,"lir":411,"jong":412,"mal":413,"keba":414,"pel":415,"bangan":416,"26":417,"28":418,"yung":419,"00":420,"ir":421,"pes":422,"21":423,"gol":424,"ge":425,"yar":426,"sen":427,"pulo":428,"tegal":429,"mang":430,"duren":431,"beng":432,"cel":433,"ahmad":434,"dua":435,"rum":436,"wan":437,"lor":438,"tra":439,"mah":440,"banjar":441,"bur":442,"yani":443,"pus":444,"35":445,"cak":446,"45":447,"kert":448,"gro":449,"han":450,"27":451,"kid":452,"sat":453,"bet":454,"bojong":455,"gede":456,"tar":457,"tia":458,"warung":459,"pam":460,"suko":461,"lama":462,"bukit":463,"min":464,"kh":465,"60":466,"kebayoran":467,"sido":468,"asari":469,"ceng":470,"cin":471,"kul":472,"sungai":473,"sur":474,"jah":475,"rawa":476,"gading":477,"bumi":478,"dalam":479,"tih":480,"aka":481,"mekar":482,"wetan":483,"29":484,"ni":485,"denpasar":486,"bali":487,"asih":488,"emb":489,"san":490,"jat":491,"kidul":492,"cell":493,"jalan":494,"36":495,"jeruk":496,"55":497,"jang":498,"gri":499,"karya":500,"putih":501,"harjo":502,"im":503,"jag":504,"perumahan":505,"kal":506,"kareng":507,"bul":508,"lin":509,"ungan":510,"cengkareng":511,"sar":512,"ug":513,"wah":514,"kap":515,"ejo":516,"ilir":517,"asri":518,"lang":519,"kp":520,"33":521,"lek":522,"rahan":523,"rumah":524,"padang":525,"besar":526,"samp":527,"gra":528,"ayu":529,"motor":530,"jln":531,"cikarang":532,"kun":533,"34":534,"cen":535,"indon":536,"je":537,"waru":538,"peng":539,"nur":540,"kuta":541,"jen":542,"griya":543,"01":544,"can":545,"nasi":546,"panc":547,"setia":548,"ong":549,"grogol":550,"50":551,"ata":552,"ch":553,"arang":554,"pasi":555,"cipa":556,"der":557,"kulon":558,"jid":559,"kam":560,"ulu":561,"duk":562,"pro":563,"mb":564,"has":565,"raw":566,"tri":567,"komplek":568,"resid":569,"eri":570,"37":571,"mangg":572,"pr":573,"32":574,"nus":575,"gan":576,"sawit":577,"hara":578,"br":579,"sin":580,"raja":581,"let":582,"puri":583,"ayam":584,"mulya":585,"fa":586,"anyar":587,"kampung":588,"mulyo":589,"gen":590,"31":591,"sak":592,"uri":593,"vii":594,"kl":595,"pasir":596,"merah":597,"ulang":598,"simp":599,"est":600,"teluk":601,"kara":602,"alang":603,"lla":604,"ped":605,"tai":606,"ling":607,"sumber":608,"pinang":609,"au":610,"air":611,"ger":612,"cakung":613,"38":614,"jur":615,"depan":616,"dam":617,"th":618,"asa":619,"57":620,"del":621,"orejo":622,"din":623,"cv":624,"dep":625,"cl":626,"kramat":627,"masjid":628,"sawah":629,"semarang":630,"pet":631,"utama":632,"reg":633,"bank":634,"egara":635,"os":636,"tebet":637,"budi":638,"jemb":639,"utat":640,"65":641,"pong":642,"bri":643,"purwo":644,"kembangan":645,"39":646,"kedung":647,"sambi":648,"dang":649,"pin":650,"tambak":651,"ciputat":652,"rak":653,"mun":654,"bam":655,"may":656,"aran":657,"pura":658,"muara":659,"lem":660,"46":661,"bah":662,"pah":663,"sri":664,"ruko":665,"dukuh":666,"sei":667,"ot":668,"clus":669,"fe":670,"wis":671,"umbu":672,"kantor":673,"03":674,"penj":675,"sul":676,"wat":677,"depok":678,"44":679,"bad":680,"sho":681,"unggal":682,"akarta":683,"duri":684,"paka":685,"graha":686,"cipayung":687,"wad":688,"ujung":689,"ram":690,"salon":691,"erang":692,"residen":693,"ukti":694,"pek":695,"pos":696,"sah":697,"abang":698,"priok":699,"aren":700,"aringan":701,"kerto":702,"rem":703,"jan":704,"sing":705,"deres":706,"kayu":707,"dah":708,"gam":709,"akarsa":710,"anak":711,"jagakarsa":712,"pancoran":713,"cempaka":714,"indo":715,"42":716,"set":717,"mai":718,"gat":719,"kelu":720,"penjaringan":721,"asem":722,"kalideres":723,"pamulang":724,"pl":725,"56":726,"bandung":727,"gel":728,"43":729,"sura":730,"mand":731,"citra":732,"rang":733,"residence":734,"negeri":735,"gadung":736,"ting":737,"peri":738,"menteng":739,"47":740,"cang":741,"bas":742,"keda":743,"jel":744,"cluster":745,"tika":746,"laun":747,"reng":748,"pol":749,"tul":750,"wangi":751,"yah":752,"andak":753,"wer":754,"ren":755,"gajah":756,"dong":757,"48":758,"hat":759,"kenc":760,"fi":761,"peg":762,"kab":763,"buran":764,"esia":765,"tambun":766,"53":767,"ua":768,"diri":769,"cilandak":770,"jembatan":771,"ete":772,"bambu":773,"dana":774,"villa":775,"tirt":776,"tanj":777,"lar":778,"car":779,"pati":780,"cas":781,"indonesia":782,"52":783,"das":784,"viii":785,"serpong":786,"04":787,"ming":788,"pela":789,"fo":790,"ponti":791,"41":792,"aya":793,"jawa":794,"putri":795,"cira":796,"petam":797,"putra":798,"bint":799,"jak":800,"petamburan":801,"pla":802,"59":803,"cemp":804,"jatin":805,"minggu":806,"bakan":807,"plu":808,"col":809,"80":810,"sind":811,"rand":812,"pontianak":813,"sek":814,"kart":815,"babakan":816,"cur":817,"ix":818,"muti":819,"za":820,"ked":821,"gatot":822,"bra":823,"rawal":824,"nusa":825,"ada":826,"cat":827,"tik":828,"rawalumbu":829,"ngin":830,"las":831,"cing":832,"cile":833,"tera":834,"pluit":835,"kelurahan":836,"tek":837,"rama":838,"602":839,"kur":840,"stasi":841,"jatinegara":842,"emangan":843,"kema":844,"makan":845,"tk":846,"ty":847,"suma":848,"harapan":849,"51":850,"surya":851,"stasiun":852,"mojo":853,"mustika":854,"sut":855,"cibo":856,"up":857,"ciracas":858,"con":859,"rung":860,"il":861,"panjang":862,"kas":863,"kong":864,"shop":865,"marga":866,"yang":867,"utan":868,"ria":869,"nong":870,"tangerang":871,"ongan":872,"bakso":873,"hu":874,"58":875,"lubuk":876,"gon":877,"masin":878,"makas":879,"was":880,"gand":881,"smp":882,"jakarta":883,"ina":884,"banjarmasin":885,"lt":886,"aman":887,"nan":888,"rm":889,"damai":890,"bil":891,"ham":892,"kro":893,"sp":894,"ker":895,"mamp":896,"kemayoran":897,"urna":898,"cilin":899,"pulau":900,"05":901,"doh":902,"gem":903,"gedung":904,"kecam":905,"ket":906,"bunga":907,"68":908,"palmerah":909,"alim":910,"nurul":911,"eh":912,"54":913,"om":914,"tugu":915,"kapuk":916,"61":917,"papan":918,"gre":919,"mawar":920,"49":921,"dul":922,"kri":923,"lest":924,"64":925,"anggrahan":926,"pondoh":927,"melati":928,"simpang":929,"larangan":930,"63":931,"lebak":932,"cipondoh":933,"ule":934,"candi":935,"cibe":936,"117":937,"pusat":938,"banyu":939,"mie":940,"manggis":941,"ura":942,"ate":943,"kios":944,"ure":945,"perm":946,"majaya":947,"cipinang":948,"sukar":949,"pis":950,"jaka":951,"uta":952,"marg":953,"tr":954,"met":955,"jatiasih":956,"curug":957,"70":958,"sumur":959,"permai":960,"kuning":961,"66":962,"mon":963,"uman":964,"kopi":965,"prap":966,"dusun":967,"ve":968,"67":969,"tal":970,"kay":971,"tambaksari":972,"kus":973,"palem":974,"okan":975,"cimah":976,"balik":977,"dal":978,"sang":979,"kecamatan":980,"pakis":981,"yi":982,"raden":983,"ol":984,"bangun":985,"samping":986,"cy":987,"tun":988,"koja":989,"pesanggrahan":990,"kol":991,"hatta":992,"bong":993,"kand":994,"mata":995,"pademangan":996,"serang":997,"lantai":998,"kav":999,"bakti":1000,"purw":1001,"ere":1002,"abadi":1003,"cilincing":1004,"ds":1005,"cibi":1006,"city":1007,"dadi":1008,"balikpapan":1009,"beji":1010,"leg":1011,"akang":1012,"sunter":1013,"cimahi":1014,"tapan":1015,"green":1016,"termin":1017,"wung":1018,"terminal":1019,"sh":1020,"yos":1021,"simo":1022,"inda":1023,"boule":1024,"bir":1025,"78":1026,"ami":1027,"62":1028,"era":1029,"dry":1030,"yorejo":1031,"mt":1032,"labu":1033,"gebang":1034,"bulak":1035,"leng":1036,"lec":1037,"sed":1038,"belakang":1039,"bro":1040,"suda":1041,"mes":1042,"bus":1043,"baya":1044,"benda":1045,"dem":1046,"cok":1047,"ring":1048,"satria":1049,"abdul":1050,"mampang":1051,"sukam":1052,"99":1053,"mit":1054,"danau":1055,"dek":1056,"kon":1057,"pangk":1058,"ratu":1059,"qu":1060,"pedur":1061,"mukti":1062,"tb":1063,"od":1064,"soek":1065,"hija":1066,"hilir":1067,"154":1068,"meg":1069,"puc":1070,"xi":1071,"klo":1072,"tower":1073,"swad":1074,"ibu":1075,"cu":1076,"senen":1077,"sinar":1078,"subr":1079,"75":1080,"ency":1081,"mandiri":1082,"pari":1083,"boj":1084,"bora":1085,"116":1086,"giri":1087,"06":1088,"by":1089,"akan":1090,"mart":1091,"sukmajaya":1092,"the":1093,"nga":1094,"cibodas":1095,"urip":1096,"aria":1097,"nag":1098,"cend":1099,"imam":1100,"kromo":1101,"kah":1102,"inan":1103,"wonokromo":1104,"bengkel":1105,"mor":1106,"band":1107,"tiga":1108,"gubeng":1109,"blo":1110,"ck":1111,"sir":1112,"sawahan":1113,"balai":1114,"arjo":1115,"mada":1116,"wari":1117,"low":1118,"regency":1119,"sm":1120,"dekat":1121,"sampurna":1122,"mitra":1123,"71":1124,"88":1125,"kerta":1126,"art":1127,"bli":1128,"eal":1129,"uku":1130,"wu":1131,"90":1132,"samar":1133,"111":1134,"karawa":1135,"115":1136,"karawaci":1137,"makmur":1138,"setu":1139,"buah":1140,"ton":1141,"pahl":1142,"tani":1143,"manis":1144,".,":1145,"175":1146,"69":1147,"bit":1148,"ini":1149,"lima":1150,"kang":1151,"butan":1152,"174":1153,"cibu":1154,"kedai":1155,"lilo":1156,"bandar":1157,"pala":1158,"apo":1159,"tambora":1160,"sakti":1161,"vete":1162,"cafe":1163,"sukolilo":1164,"collec":1165,"sad":1166,"bing":1167,"gambir":1168,"andi":1169,"ex":1170,"gili":1171,"164":1172,"grand":1173,"hasan":1174,"are":1175,"tis":1176,"bay":1177,"prima":1178,"hida":1179,"seng":1180,"dip":1181,"brig":1182,"tirta":1183,"araja":1184,"114":1185,"lok":1186,"mbang":1187,"cah":1188,"catur":1189,"jal":1190,"bt":1191,"samarinda":1192,"buntu":1193,"kabu":1194,"peti":1195,"laundry":1196,"makasar":1197,"76":1198,"402":1199,"hotel":1200,"118":1201,"cinere":1202,"kat":1203,"cih":1204,"uni":1205,"glo":1206,"rembangan":1207,"gus":1208,"lowok":1209,"mulyorejo":1210,"122":1211,"park":1212,"lowokwaru":1213,"atas":1214,"tran":1215,"rungkut":1216,"hel":1217,"pangan":1218,"km":1219,"002":1220,"73":1221,"tah":1222,"cibinong":1223,"hijau":1224,"jadi":1225,"wij":1226,"sy":1227,"tung":1228,"badak":1229,"mush":1230,"sumo":1231,"ll":1232,"ne":1233,"sereal":1234,"ppo":1235,"por":1236,"07":1237,"mari":1238,"rai":1239,"cimanggis":1240,"dewi":1241,"jai":1242,"pun":1243,"keta":1244,"fat":1245,"tong":1246,"metro":1247,"72":1248,"prapatan":1249,"rebo":1250,"bata":1251,"raha":1252,"pedurungan":1253,"125":1254,"muha":1255,"lak":1256,"supr":1257,"purwokerto":1258,"gur":1259,"wal":1260,"bany":1261,"mulia":1262,"112":1263,"meng":1264,"asan":1265,"karet":1266,"ment":1267,"jem":1268,"79":1269,"swa":1270,"edug":1271,"got":1272,"pring":1273,"kolo":1274,"kuk":1275,"74":1276,"iri":1277,"134":1278,"kad":1279,"jeran":1280,"fam":1281,"indra":1282,"tinggi":1283,"asia":1284,"jua":1285,"para":1286,"77":1287,"apar":1288,"lon":1289,"124":1290,"kenjeran":1291,"raman":1292,"umar":1293,"paten":1294,"ame":1295,"jombang":1296,"138":1297,"hal":1298,"153":1299,"kencana":1300,"bend":1301,"kre":1302,"ash":1303,"way":1304,"001":1305,"tas":1306,"lim":1307,"ciledug":1308,"duta":1309,"cila":1310,"sugi":1311,"sili":1312,"melayu":1313,"rin":1314,"islam":1315,"eka":1316,"ikan":1317,"prof":1318,"kata":1319,"wisma":1320,"nas":1321,"kebun":1322,"83":1323,"hulu":1324,"taro":1325,"yat":1326,"sid":1327,"126":1328,"yak":1329,"tion":1330,"100":1331,"baba":1332,"tama":1333,"orong":1334,"kop":1335,"koto":1336,"cire":1337,"ambar":1338,"sebel":1339,"ranca":1340,"sunggal":1341,"ec":1342,"cika":1343,"bina":1344,"deli":1345,"genteng":1346,"bor":1347,"chi":1348,"sula":1349,"pot":1350,"yai":1351,"sindang":1352,"mobil":1353,"kli":1354,"lengkong":1355,"surabaya":1356,"ras":1357,"kuningan":1358,"satu":1359,"nia":1360,"wates":1361,"kb":1362,"tin":1363,"pram":1364,"bitung":1365,"mall":1366,"113":1367,"tim":1368,"tak":1369,"tunggal":1370,"johar":1371,"ingin":1372,"127":1373,"pekal":1374,"tur":1375,"va":1376,"sreng":1377,"ukan":1378,"solo":1379,"rahayu":1380,"gedangan":1381,"won":1382,"kaler":1383,"cut":1384,"antara":1385,"kena":1386,"krembangan":1387,"cili":1388,"uny":1389,"parang":1390,"pangkalan":1391,"waringin":1392,"salam":1393,"rasa":1394,"asrama":1395,"intan":1396,"aha":1397,"land":1398,"82":1399,"ding":1400,"tuk":1401,"sejah":1402,"wisata":1403,"batam":1404,"08":1405,"kr":1406,"ona":1407,"sekar":1408,"merd":1409,"trans":1410,"09":1411,"flam":1412,"logo":1413,"soe":1414,"balang":1415,"cini":1416,"elek":1417,"paku":1418,"sukun":1419,"darat":1420,"lapangan":1421,"sukabumi":1422,"far":1423,"teuku":1424,"enan":1425,"temen":1426,"net":1427,"btn":1428,"ahayu":1429,"alun":1430,"condong":1431,"144":1432,"sunan":1433,"sema":1434,"penang":1435,"musho":1436,"matraman":1437,"sidoarjo":1438,"wati":1439,"wid":1440,"mbing":1441,"sma":1442,"cap":1443,"137":1444,"karawang":1445,"jajar":1446,"003":1447,"pucung":1448,"one":1449,"laut":1450,"132":1451,"anggung":1452,"ih":1453,"sawo":1454,"ampir":1455,"antar":1456,"plo":1457,"bantar":1458,"pd":1459,"kosambi":1460,"margahayu":1461,"joyo":1462,"rea":1463,"bha":1464,"soto":1465,"kemis":1466,"smk":1467,"hus":1468,"pers":1469,"pekalongan":1470,"cam":1471,"loa":1472,"agus":1473,"af":1474,"cik":1475,"kom":1476,"kabupaten":1477,"buana":1478,"tajur":1479,"cinta":1480,"mega":1481,"gul":1482,"jun":1483,"ngag":1484,"81":1485,"tapos":1486,"talang":1487,"teru":1488,"ac":1489,"rep":1490,"jambi":1491,"gir":1492,"jami":1493,"sep":1494,"binjai":1495,"pp":1496,"ral":1497,"luh":1498,"mara":1499,"mangga":1500,"send":1501,"eran":1502,"bale":1503,"123":1504,"buaya":1505,"juang":1506,"blimbing":1507,"tlogo":1508,"uda":1509,"permata":1510,"halim":1511,"wijaya":1512,"leu":1513,"meru":1514,"86":1515,"az":1516,"endah":1517,"semampir":1518,"nu":1519,"jaten":1520,"wahid":1521,"periuk":1522,"93":1523,"dik":1524,"warna":1525,"uto":1526,"wana":1527,"rappo":1528,"daan":1529,"bening":1530,"kyai":1531,"sla":1532,"len":1533,"antapan":1534,"139":1535,"antapani":1536,"buaran":1537,"kin":1538,"susu":1539,"xii":1540,"pandan":1541,"bela":1542,"pisangan":1543,"aro":1544,"kaja":1545,"dio":1546,"aji":1547,"121":1548,"golf":1549,"cof":1550,"sukad":1551,"wahana":1552,"vetia":1553,"helvetia":1554,"egoro":1555,"85":1556,"ny":1557,"jek":1558,"cic":1559,"indu":1560,"pendi":1561,"pegad":1562,"foto":1563,"huda":1564,"oni":1565,"besi":1566,"95":1567,"sant":1568,"malaka":1569,"tana":1570,"87":1571,"parung":1572,"133":1573,"sawangan":1574,"sukajadi":1575,"garden":1576,"tirto":1577,"apartemen":1578,"ace":1579,"ses":1580,"medi":1581,"bean":1582,"belan":1583,"palu":1584,"plaza":1585,"unit":1586,"tembalang":1587,"84":1588,"ap":1589,"bud":1590,"hous":1591,"tro":1592,"int":1593,"salak":1594,"tham":1595,"srengseng":1596,"her":1597,"iska":1598,"pesant":1599,"tamalan":1600,"oros":1601,"tamalanrea":1602,"suci":1603,"deka":1604,"unying":1605,"muda":1606,"cibeunying":1607,"gong":1608,"ploso":1609,"ye":1610,"bai":1611,"roy":1612,"wira":1613,"berang":1614,"hary":1615,"kamal":1616,"beri":1617,"palm":1618,"sor":1619,"tum":1620,"yaya":1621,"yungan":1622,"dinas":1623,"91":1624,"gas":1625,"sas":1626,"batang":1627,"rappocini":1628,"mung":1629,"anda":1630,"cilo":1631,"stu":1632,"kemi":1633,"rogo":1634,"142":1635,"lestari":1636,"mba":1637,"limo":1638,"94":1639,"betung":1640,"poris":1641,"saan":1642,"banjarsari":1643,"129":1644,"kandang":1645,"pesantren":1646,"cer":1647,"ver":1648,"wali":1649,"indus":1650,"sate":1651,"89":1652,"ciku":1653,"106":1654,"128":1655,"kediri":1656,"flamb":1657,"poros":1658,"lapa":1659,"seberang":1660,"house":1661,"salim":1662,"131":1663,"luar":1664,"bis":1665,"kedo":1666,"kayon":1667,"wur":1668,"agen":1669,"pintu":1670,"he":1671,"biru":1672,"cipta":1673,"jok":1674,"wed":1675,"purwakarta":1676,"92":1677,"lat":1678,"158":1679,"sdn":1680,"bp":1681,"mali":1682,"902":1683,"bakar":1684,"klojen":1685,"darmo":1686,"pekayon":1687,"mangun":1688,"jelambar":1689,"bubutan":1690,"bojonggede":1691,"jeng":1692,"mini":1693,"bonto":1694,"petisah":1695,"612":1696,"ampel":1697,"kepan":1698,"kapas":1699,"dipon":1700,"119":1701,"colo":1702,"kana":1703,"siantar":1704,"lamp":1705,"lah":1706,"daya":1707,"cilacap":1708,"ngu":1709,"kud":1710,"angke":1711,"maja":1712,"manunggal":1713,"jatibening":1714,"bid":1715,"seg":1716,"ungsi":1717,"sukasari":1718,"ani":1719,"sebelah":1720,"aki":1721,"bulan":1722,"165":1723,"musholla":1724,"inter":1725,"bait":1726,"sudir":1727,"mayor":1728,"135":1729,"cileungsi":1730,"tegalsari":1731,"darma":1732,"),":1733,"jambangan":1734,"1a":1735,"dada":1736,"105":1737,"tom":1738,"malang":1739,"niaga":1740,"meruya":1741,"ip":1742,"rs":1743,"tuan":1744,"bulu":1745,"tour":1746,"004":1747,"buhan":1748,"rangg":1749,"but":1750,"mandala":1751,"98":1752,"mutiara":1753,"aceh":1754,"rek":1755,"baran":1756,"saleh":1757,"les":1758,"lik":1759,"elok":1760,"uran":1761,"kost":1762,"143":1763,"mangu":1764,"ven":1765,"puske":1766,"bintara":1767,"sudirman":1768,"ps":1769,"ph":1770,"ungg":1771,"cibitung":1772,"pand":1773,"cio":1774,"depot":1775,"pare":1776,"cari":1777,"pabean":1778,"dau":1779,"comp":1780,"negara":1781,"aga":1782,"umanik":1783,"102":1784,"169":1785,"agia":1786,"kemb":1787,"kembang":1788,"perak":1789,"lebar":1790,"banyumanik":1791,"bahagia":1792,"151":1793,"kalibata":1794,"lati":1795,"perk":1796,"cipete":1797,"siliw":1798,"dha":1799,"mam":1800,"manyar":1801,"136":1802,"puro":1803,"pac":1804,"resik":1805,"selayang":1806,"kauman":1807,"must":1808,"dadap":1809,"stor":1810,"cisa":1811,"py":1812,"tamal":1813,"arum":1814,"peto":1815,"yamin":1816,"industri":1817,"kerep":1818,"tau":1819,"port":1820,"suman":1821,"hak":1822,"wiyung":1823,"kiara":1824,"bojongsari":1825,"banguntapan":1826,"sim":1827,"suro":1828,"bed":1829,"onal":1830,"panj":1831,"gelang":1832,"lum":1833,"of":1834,"sya":1835,"kepa":1836,"kepanjen":1837,"panak":1838,"pegang":1839,"babelan":1840,"104":1841,"mans":1842,"bulus":1843,"joh":1844,"arj":1845,"gedong":1846,"bintaro":1847,"pengas":1848,"nik":1849,"kera":1850,"cisar":1851,"kir":1852,"tamalate":1853,"ly":1854,"nang":1855,"turi":1856,"alfa":1857,"kemu":1858,"lawe":1859,"song":1860,"muka":1861,"rengas":1862,"tari":1863,"maju":1864,"96":1865,"op":1866,"sana":1867,"pono":1868,"ciped":1869,"store":1870,"502":1871,"nomor":1872,"dir":1873,"pejaten":1874,"denai":1875,"lel":1876,"engan":1877,"107":1878,"moj":1879,"fur":1880,"ian":1881,"kacang":1882,"siti":1883,"lawang":1884,"163":1885,"dokter":1886,"jambe":1887,"dwi":1888,"cia":1889,"tikan":1890,"103":1891,"dono":1892,"cian":1893,"cite":1894,"kukang":1895,"panakkukang":1896,"eger":1897,"ceper":1898,"ikh":1899,"wahi":1900,"abi":1901,"kemang":1902,"com":1903,"pelabuhan":1904,"simokerto":1905,"karangan":1906,"atik":1907,"makassar":1908,"ukangan":1909,"broto":1910,"beno":1911,"center":1912,"fal":1913,"rat":1914,"riz":1915,"bangka":1916,"merdeka":1917,"cibubur":1918,"sra":1919,"moh":1920,"kum":1921,"rus":1922,"pegangsaan":1923,"klin":1924,"prat":1925,"wen":1926,"uning":1927,"magelang":1928,"ampar":1929,"155":1930,"rege":1931,"collection":1932,"pengasinan":1933,"angk":1934,"usaha":1935,"sent":1936,"cilodong":1937,"ramb":1938,"jambu":1939,"petukangan":1940,"gresik":1941,"baro":1942,"rowo":1943,"bojongloa":1944,"pho":1945,"oka":1946,"mts":1947,"tampan":1948,"manggala":1949,"hayam":1950,"gh":1951,"cantikan":1952,"kepu":1953,"mekarsari":1954,"kudus":1955,"mama":1956,"ciko":1957,"servi":1958,"cipi":1959,"jeb":1960,"elektr":1961,"ayan":1962,"141":1963,"jagalan":1964,"food":1965,"cita":1966,"copy":1967,"klat":1968,"halang":1969,"vel":1970,"kecil":1971,"157":1972,"sukaraja":1973,"wuruk":1974,"pag":1975,"tua":1976,"bea":1977,"singo":1978,"jebres":1979,"ep":1980,"110":1981,"ry":1982,"kawas":1983,"101":1984,"sudimara":1985,"klod":1986,"area":1987,"b1":1988,"kedaung":1989,"mogot":1990,"ky":1991,"bawang":1992,"merak":1993,"nusan":1994,"kopo":1995,"murni":1996,"gayungan":1997,"pera":1998,"madr":1999,"dat":2000,"ancol":2001,"pagar":2002,"aliyan":2003,"kup":2004,"randu":2005,"adas":2006,"sewu":2007,"kran":2008,"kuti":2009,"xx":2010,"banda":2011,"dis":2012,"delta":2013,"kawasan":2014,"152":2015,"gondang":2016,"gilingan":2017,"photo":2018,"warkop":2019,"gudang":2020,"camp":2021,"boyo":2022,"tuban":2023,"kari":2024,"pejuang":2025,"kedoya":2026,"97":2027,"iman":2028,"uy":2029,"tembung":2030,"dri":2031,"hari":2032,"pres":2033,"merp":2034,"garut":2035,"sart":2036,"jul":2037,"kadi":2038,"win":2039,"payung":2040,"subroto":2041,"makam":2042,"ruk":2043,"banten":2044,"aneka":2045,"panca":2046,"batun":2047,"jas":2048,"pabuaran":2049,"seti":2050,"bk":2051,"ngaliyan":2052,"alu":2053,"darul":2054,"service":2055,"arc":2056,"batur":2057,"awa":2058,"say":2059,"120":2060,"madu":2061,"fajar":2062,"panggung":2063,"squ":2064,"tent":2065,"005":2066,"nusantara":2067,"ureup":2068,"rob":2069,"biring":2070,"ron":2071,"aram":2072,"bangk":2073,"luhur":2074,"baja":2075,"marta":2076,"kemuning":2077,"pegadungan":2078,"boro":2079,"168":2080,"batas":2081,"regol":2082,"citeureup":2083,"fas":2084,"amang":2085,"babat":2086,"pit":2087,"aray":2088,"sai":2089,"goa":2090,"cokr":2091,"..":2092,"gayam":2093,"purworejo":2094,"zam":2095,"sta":2096,"tulung":2097,"ciomas":2098,"anug":2099,"joglo":2100,"cent":2101,"lembang":2102,"hang":2103,"swas":2104,"tawang":2105,"dauh":2106,"harjam":2107,"ciparay":2108,"mataram":2109,"batuceper":2110,"ubud":2111,"ula":2112,"musi":2113,"guna":2114,"sumoh":2115,"anom":2116,"alfam":2117,"mage":2118,"17530":2119,"kerang":2120,"umbul":2121,"rong":2122,"sukorejo":2123,"blong":2124,"145":2125,"kedungkandang":2126,"gandaria":2127,"banyuwangi":2128,"pacar":2129,"seh":2130,"johor":2131,"for":2132,"anta":2133,"uki":2134,"puan":2135,"sendang":2136,"dhar":2137,"paud":2138,"multi":2139,"taru":2140,"buahbatu":2141,"hadi":2142,"anti":2143,"tukad":2144,"olo":2145,"taq":2146,"pesan":2147,"jetis":2148,"situ":2149,"margo":2150,"coblong":2151,"ranc":2152,"estate":2153,"pekan":2154,"jela":2155,"winang":2156,"madi":2157,"kil":2158,"lemah":2159,"sidorejo":2160,"winangun":2161,"cor":2162,"hj":2163,"mbak":2164,"panja":2165,"mera":2166,"sukama":2167,"dalem":2168,"cicadas":2169,"kanaya":2170,"ice":2171,"wul":2172,"aton":2173,"cis":2174,"percut":2175,"toro":2176,"watu":2177,"harjamukti":2178,"margacinta":2179,"ea":2180,"nangg":2181,"klinik":2182,"ciam":2183,"karta":2184,"lamongan":2185,"amanah":2186,"batik":2187,"kaum":2188,"serua":2189,"klaten":2190,"batan":2191,"uringin":2192,"kasih":2193,"mis":2194,"kek":2195,"titi":2196,"kayuringin":2197,"deng":2198,"anan":2199,"ard":2200,"sambikerep":2201,"leuwi":2202,"basa":2203,"lasari":2204,"ulya":2205,"kai":2206,"gundi":2207,"neglasari":2208,"swasta":2209,"gum":2210,"sera":2211,"130":2212,"wonocolo":2213,"benco":2214,"apotek":2215,"batununggal":2216,"ora":2217,"bant":2218,"pahla":2219,"zi":2220,"atani":2221,"coffe":2222,"karanganyar":2223,"kebu":2224,"serv":2225,"penggilingan":2226,"letj":2227,"jakas":2228,"topo":2229,"12a":2230,"chic":2231,"bencongan":2232,"atang":2233,"masuk":2234,"pilang":2235,"halte":2236,"karno":2237,"paja":2238,"tengkerang":2239,"bers":2240,"006":2241,"moro":2242,"vo":2243,"supra":2244,"jaga":2245,"nat":2246,"dean":2247,"yong":2248,"telukbetung":2249,"petojo":2250,"sw":2251,"hitam":2252,"cipto":2253,"prabu":2254,"purwodadi":2255,"kasi":2256,"riy":2257,"hik":2258,"wr":2259,"sukapura":2260,"sukomanunggal":2261,"cima":2262,"elang":2263,"ender":2264,"madang":2265,"baha":2266,"ay":2267,"ita":2268,"eleng":2269,"lis":2270,"ampurna":2271,"medang":2272,"kusuma":2273,"jurang":2274,"cahaya":2275,"jakasampurna":2276,"udik":2277,"kelon":2278,"bawah":2279,"bima":2280,"kedin":2281,"andir":2282,"cikupa":2283,"arif":2284,"108":2285,"cabe":2286,"wes":2287,"140":2288,"marpo":2289,"tebing":2290,"naro":2291,"spring":2292,"lia":2293,"pesona":2294,"sukamaju":2295,"marpoyan":2296,"pahlawan":2297,"-,":2298,"barok":2299,"pagedangan":2300,"beli":2301,"kedaton":2302,"jalur":2303,"sekol":2304,"148":2305,"gigi":2306,"bendungan":2307,"ponorogo":2308,"wel":2309,"unyi":2310,"yog":2311,"cipad":2312,"kamb":2313,"ngaglik":2314,"kebo":2315,"semper":2316,"sore":2317,"lemb":2318,"uter":2319,"150":2320,"maret":2321,"bre":2322,"ekek":2323,"oroto":2324,"cokro":2325,"api":2326,"rancaekek":2327,"baleendah":2328,"dak":2329,"fina":2330,"nam":2331,"tru":2332,"146":2333,"serp":2334,"pada":2335,"sambian":2336,"sejahtera":2337,"uwung":2338,"lingga":2339,"cileunyi":2340,"labuhan":2341,"jekan":2342,"apus":2343,"pung":2344,"spa":2345,"kerob":2346,"onegoro":2347,"lot":2348,"147":2349,"pejagalan":2350,"yoso":2351,"flo":2352,"ngadi":2353,"map":2354,"wiro":2355,"007":2356,"sidotopo":2357,"klender":2358,"alfamart":2359,"2a":2360,"argo":2361,"keb":2362,"mager":2363,"perta":2364,"450":2365,"jepara":2366,"jende":2367,"sukadami":2368,"mojoroto":2369,"gis":2370,"sand":2371,"unan":2372,"pai":2373,"tengg":2374,"balong":2375,"wonosari":2376,"cirebon":2377,"mungkur":2378,"imp":2379,"juk":2380,"wn":2381,"cije":2382,"jawi":2383,"sono":2384,"hill":2385,"sukatani":2386,"kendal":2387,"patokan":2388,"saha":2389,"sahari":2390,"pendid":2391,"jenderal":2392,"ic":2393,"mut":2394,"roro":2395,"ungaran":2396,"jayan":2397,"engka":2398,"padangsambian":2399,"sukarame":2400,"gilis":2401,"laksa":2402,"royal":2403,"heg":2404,"ks":2405,"usuman":2406,"ori":2407,"tol":2408,"bintang":2409,"wanasari":2410,"ib":2411,"perju":2412,"jatirahayu":2413,"pemec":2414,"perjuangan":2415,"fash":2416,"ping":2417,"maj":2418,"putat":2419,"3a":2420,"ale":2421,"156":2422,"tenggilis":2423,"kalisari":2424,"antung":2425,"badan":2426,"dewan":2427,"kaliabang":2428,"kupang":2429,"temb":2430,"rancasari":2431,"dy":2432,"alo":2433,"ade":2434,"ris":2435,"cianjur":2436,"pemecutan":2437,"sidi":2438,"banteng":2439,"muham":2440,"bungan":2441,"polri":2442,"ciamis":2443,"atm":2444,"bara":2445,"barokah":2446,"bb":2447,"cle":2448,"cibadak":2449,"perdana":2450,"rambutan":2451,"irian":2452,"dari":2453,"syah":2454,"mejoyo":2455,"kanan":2456,"dumai":2457,"fatma":2458,"nasu":2459,"gali":2460,"nn":2461,"ast":2462,"subang":2463,"pantai":2464,"pandang":2465,"tern":2466,"kuala":2467,"bunda":2468,"teknik":2469,"alur":2470,"gaga":2471,"indomaret":2472,"farma":2473,"wara":2474,"inp":2475,"pom":2476,"fashi":2477,"nya":2478,"walan":2479,"kesambi":2480,"barang":2481,"star":2482,"sidomulyo":2483,"ketapang":2484,"cet":2485,"eja":2486,"fri":2487,"qur":2488,"jatimulya":2489,"mlati":2490,"anten":2491,"apel":2492,"fir":2493,"raf":2494,"ciran":2495,"173":2496,"jero":2497,"siri":2498,"bou":2499,"166":2500,"tajurhalang":2501,"bidan":2502,"sia":2503,"jog":2504,"172":2505,"gempol":2506,"dipone":2507,"nangka":2508,"sakura":2509,"amekar":2510,"ste":2511,"tut":2512,"tandes":2513,"said":2514,"uripan":2515,"pangeran":2516,"merta":2517,"wonorejo":2518,"patti":2519,"rajabasa":2520,"sako":2521,"hakim":2522,"tangg":2523,"astana":2524,"kos":2525,"roh":2526,"travel":2527,"ketin":2528,"que":2529,"kemiri":2530,"sragen":2531,"fashion":2532,"don":2533,"upang":2534,"sumat":2535,"uli":2536,"manu":2537,"dowo":2538,"kiri":2539,"rusun":2540,"amanik":2541,"ort":2542,"univ":2543,"sultan":2544,"santri":2545,"arcamanik":2546,"bh":2547,"xiii":2548,"keseh":2549,"usan":2550,"semanan":2551,"naga":2552,"falah":2553,"eung":2554,"kha":2555,"lp":2556,"lakar":2557,"amal":2558,"sion":2559,"kiaracondong":2560,"suto":2561,"isan":2562,"beringin":2563,"gamp":2564,"isi":2565,"dia":2566,"lau":2567,"pojok":2568,"tuah":2569,"cilang":2570,"plawad":2571,"bojonegoro":2572,"karto":2573,"selat":2574,"sea":2575,"madya":2576,"cilangkap":2577,"raj":2578,"new":2579,"yayasan":2580,"magersari":2581,"hegar":2582,"cicen":2583,"goreng":2584,"elec":2585,"ulon":2586,"kelod":2587,"road":2588,"gud":2589,"bala":2590,"persada":2591,"ine":2592,"benowo":2593,"kerobokan":2594,"aw":2595,"umi":2596,"lagoa":2597,"anggang":2598,"gunan":2599,"kambing":2600,"rambut":2601,"susukan":2602,"rukun":2603,"ulin":2604,"belim":2605,"stas":2606,"stri":2607,"village":2608,"sukarami":2609,"hid":2610,"tasi":2611,"amin":2612,"riau":2613,"umum":2614,"seko":2615,"umbulharjo":2616,"bsd":2617,"smas":2618,"xiv":2619,"arga":2620,"109":2621,"lurah":2622,"kuda":2623,"resto":2624,"sindu":2625,"mala":2626,"bangkong":2627,"lubang":2628,"jemur":2629,"fit":2630,"kw":2631,"cij":2632,"tic":2633,"amplas":2634,"gub":2635,"bungur":2636,"lega":2637,"optik":2638,"inti":2639,"empat":2640,"sobo":2641,"gununganyar":2642,"tunas":2643,"a1":2644,"siman":2645,"usari":2646,"tambang":2647,"162":2648,"mif":2649,"leh":2650,"nasional":2651,"bayur":2652,"802":2653,"ef":2654,"jasa":2655,"vard":2656,"ngamp":2657,"karan":2658,"bol":2659,"hos":2660,"rakyat":2661,"baitur":2662,"ogan":2663,"kejak":2664,"urus":2665,"emi":2666,"gadang":2667,"geb":2668,"caturtunggal":2669,"zah":2670,"hajar":2671,"resort":2672,"studio":2673,"lampung":2674,"univer":2675,"isa":2676,"sport":2677,"tomang":2678,"bola":2679,"lele":2680,"cicendo":2681,"adis":2682,"sian":2683,"dit":2684,"liang":2685,"lom":2686,"blang":2687,"pratama":2688,"kampus":2689,"361":2690,"boulevard":2691,"ranggon":2692,"jaticempaka":2693,"171":2694,"abdu":2695,"water":2696,"klam":2697,"una":2698,"bebek":2699,"dasar":2700,"mesjid":2701,"jing":2702,"rpt":2703,"amir":2704,"asin":2705,"sus":2706,"budur":2707,"barber":2708,"litan":2709,"jatimakmur":2710,"161":2711,"tubun":2712,"berkah":2713,"kuto":2714,"prak":2715,"pesi":2716,"durian":2717,"petir":2718,"ces":2719,"og":2720,"anga":2721,"lidah":2722,"binong":2723,"serdang":2724,"kemer":2725,"rawabadak":2726,"gereja":2727,"rptra":2728,"kis":2729,"pn":2730,"ngem":2731,"asu":2732,"panungg":2733,"yuh":2734,"medokan":2735,"plas":2736,"ciherang":2737,"413":2738,"tata":2739,"alas":2740,"rid":2741,"tamb":2742,"dago":2743,"pecel":2744,"alarang":2745,"asura":2746,"percet":2747,"usman":2748,"bau":2749,"yusu":2750,"pisang":2751,"seder":2752,"cisaranten":2753,"anji":2754,"roti":2755,"moha":2756,"167":2757,"meu":2758,"alaya":2759,"260":2760,"demak":2761,"laweyan":2762,"panunggangan":2763,"ngasem":2764,"kac":2765,"paci":2766,"vil":2767,"legok":2768,"soekarno":2769,"taqwa":2770,"casa":2771,"keri":2772,"202":2773,"tral":2774,"square":2775,"kebumen":2776,"gemb":2777,"ler":2778,"ola":2779,"xv":2780,"cigan":2781,"sab":2782,"banan":2783,"ist":2784,"pass":2785,"anggi":2786,"garuda":2787,"rawamang":2788,"mengwi":2789,"ngagel":2790,"rawamangun":2791,"cho":2792,"kho":2793,"red":2794,"kartasura":2795,"spbu":2796,"auto":2797,"iang":2798,"dikan":2799,"warga":2800,"pucang":2801,"sanur":2802,"prin":2803,"cuci":2804,"coffee":2805,"doro":2806,"perd":2807,"rahman":2808,"kani":2809,"telaga":2810,"genuk":2811,"kartini":2812,"media":2813,"cipe":2814,"esmi":2815,"160":2816,"brang":2817,"bontoala":2818,"kedinding":2819,"gn":2820,"baw":2821,"1645":2822,"maka":2823,"balo":2824,"sukoharjo":2825,"pendidikan":2826,"spe":2827,"tok":2828,"tni":2829,"manun":2830,"gom":2831,"home":2832,"manggu":2833,"gusti":2834,"kung":2835,"kru":2836,"anwar":2837,"angkri":2838,"sil":2839,"sepanjang":2840,"jim":2841,"pangkas":2842,"cab":2843,"uhan":2844,"darus":2845,"250":2846,"group":2847,"15810":2848,"mr":2849,"sala":2850,"adam":2851,"tawa":2852,"dian":2853,"udara":2854,"tangah":2855,"sriwi":2856,"pend":2857,"cike":2858,"ulum":2859,"jatikramat":2860,"muh":2861,"teh":2862,"krak":2863,"artha":2864,"lenteng":2865,"aa":2866,"abu":2867,"ct":2868,"oko":2869,"ss":2870,"unde":2871,"ation":2872,"mast":2873,"sese":2874,"sasak":2875,"cipedes":2876,"sekolah":2877,"hon":2878,"son":2879,"atu":2880,"peru":2881,"purn":2882,"semb":2883,"langga":2884,"klari":2885,"yusuf":2886,"gah":2887,"jum":2888,"ema":2889,"kaca":2890,"wol":2891,"madra":2892,"181":2893,"gayamsari":2894,"sr":2895,"vin":2896,"isti":2897,"176":2898,"yono":2899,"sento":2900,"muncang":2901,"finan":2902,"gy":2903,"ret":2904,"tend":2905,"eni":2906,"siak":2907,"peta":2908,"padalarang":2909,"b2":2910,"arja":2911,"kawang":2912,"149":2913,"nasio":2914,"gemi":2915,"tunjung":2916,"nges":2917,"super":2918,"maya":2919,"jatiwaringin":2920,"kusumo":2921,"merto":2922,"baso":2923,"511":2924,"puk":2925,"amd":2926,"kes":2927,"sidem":2928,"sarana":2929,"pancur":2930,"plak":2931,"mone":2932,"tunt":2933,"kavling":2934,"songo":2935,"cha":2936,"hm":2937,"sisin":2938,"banj":2939,"waro":2940,"martani":2941,"yudan":2942,"madrasah":2943,"ragunan":2944,"bua":2945,"bage":2946,"selo":2947,"luma":2948,"krajan":2949,"mangku":2950,"langu":2951,"ureum":2952,"wungu":2953,"nit":2954,"taka":2955,"bubur":2956,"karah":2957,"sis":2958,"los":2959,"guwo":2960,"jagung":2961,"penga":2962,"pln":2963,"kuranji":2964,"yogya":2965,"geger":2966,"hana":2967,"jomb":2968,"egan":2969,"podo":2970,"serba":2971,"nirw":2972,"sekip":2973,"17510":2974,"tarogong":2975,"pajaj":2976,"kosa":2977,"arai":2978,"law":2979,"kaliwates":2980,"paradis":2981,"wonosobo":2982,"lingkar":2983,"dangin":2984,"margaasih":2985,"cibeureum":2986,"beg":2987,"king":2988,"led":2989,"angin":2990,"unt":2991,"kapan":2992,"babatan":2993,"wajo":2994,"bendo":2995,"candisari":2996,"sedati":2997,"yeuh":2998,"git":2999,"asam":3000,"kauh":3001,"dayeuh":3002,"sehat":3003,"pase":3004,"jatiuwung":3005,"blan":3006,"pisa":3007,"samu":3008,"nanas":3009,"brebes":3010,"gint":3011,"my":3012,"cideng":3013,"tipar":3014,"kope":3015,"reja":3016,"jatisari":3017,"maru":3018,"padur":3019,"buleleng":3020,"kunciran":3021,"sekaki":3022,"singosari":3023,"013":3024,"kn":3025,"shi":3026,"cikan":3027,"panji":3028,"long":3029,"tamansari":3030,"jendral":3031,"paradise":3032,"gr":3033,"gala":3034,"iyah":3035,"nak":3036,"ambon":3037,"ciat":3038,"pert":3039,"bag":3040,"kebonsari":3041,"tembil":3042,"singkawang":3043,"diponegoro":3044,"611":3045,"a2":3046,"dun":3047,"wedi":3048,"pinus":3049,"singa":3050,"kranji":3051,"galih":3052,"kartoharjo":3053,"mh":3054,"anai":3055,"amat":3056,"sumedang":3057,"jagir":3058,"anggan":3059,"juice":3060,"jamin":3061,"parit":3062,"loka":3063,"uan":3064,"kawan":3065,"haur":3066,"deket":3067,"tech":3068,"beras":3069,"praja":3070,"sumb":3071,"pemalang":3072,"sanan":3073,"munjul":3074,"bangunan":3075,"bromo":3076,"soreang":3077,"4a":3078,"aq":3079,"c1":3080,"nar":3081,"cikamp":3082,"top":3083,"kalang":3084,"sumberjaya":3085,"care":3086,"ombo":3087,"lontar":3088,"press":3089,"211":3090,"umu":3091,"sap":3092,"daeng":3093,"pik":3094,"lamo":3095,"suryo":3096,"klamp":3097,"sepatan":3098,"cikampek":3099,"cib":3100,"emas":3101,"bantul":3102,"kalia":3103,"andut":3104,"alamat":3105,"nuri":3106,"pahandut":3107,"tbk":3108,"cihid":3109,"tahu":3110,"kolot":3111,"tarumajaya":3112,"linggau":3113,"kla":3114,"rt02":3115,"kelo":3116,"town":3117,"pemuda":3118,"puskesmas":3119,"ceger":3120,"ratul":3121,"radio":3122,"onik":3123,"sih":3124,"payak":3125,"sawa":3126,"dol":3127,"tuba":3128,"lub":3129,"pelab":3130,"mahasi":3131,"kalong":3132,"profe":3133,"mbah":3134,"gandul":3135,"212":3136,"nunggal":3137,"asy":3138,"dae":3139,"anggrek":3140,"high":3141,"sukawati":3142,"phone":3143,"cipedak":3144,"a3":3145,"gung":3146,"emon":3147,"sos":3148,"anggu":3149,"karangpilang":3150,"menur":3151,"maha":3152,"cisauk":3153,"tenggara":3154,"mahasiswa":3155,"mm":3156,"lake":3157,"bakmi":3158,"kalid":3159,"via":3160,"wahyu":3161,"blora":3162,"pekanbaru":3163,"tuntungan":3164,"ui":3165,"anggisan":3166,"kemanggisan":3167,"benteng":3168,"pete":3169,"tulungagung":3170,"2b":3171,"tha":3172,"inah":3173,"ukum":3174,"meun":3175,"purwan":3176,"sidom":3177,"telukjambe":3178,"purwosari":3179,"sukaresmi":3180,"kandangan":3181,"kavl":3182,"bandara":3183,"sugih":3184,"cililitan":3185,"tlogosari":3186,"ngamprah":3187,"imo":3188,"ibra":3189,"lalang":3190,"ono":3191,"angga":3192,"cong":3193,"dupak":3194,"minum":3195,"central":3196,"duku":3197,"plum":3198,"rangkapan":3199,"gondok":3200,"margasari":3201,"gundil":3202,"tembilahan":3203,"5a":3204,"aur":3205,"ais":3206,"kaka":3207,"masi":3208,"lian":3209,"seta":3210,"berl":3211,"yanan":3212,"meri":3213,"mela":3214,"kompleks":3215,"kebomas":3216,"jimbaran":3217,"cre":3218,"raga":3219,"alung":3220,"indrama":3221,"saman":3222,"rantau":3223,"cina":3224,"patihan":3225,"block":3226,"mamajang":3227,"sentosa":3228,"hok":3229,"lorong":3230,"vet":3231,"rt01":3232,"paya":3233,"day":3234,"daun":3235,"dewa":3236,"peko":3237,"gusan":3238,"kepuh":3239,"universi":3240,"gondokusuman":3241,"indramayu":3242,"tpa":3243,"nolo":3244,"egon":3245,"1522":3246,"178":3247,"kita":3248,"405":3249,"kebagusan":3250,"cellul":3251,"condongcatur":3252,"dirg":3253,"aluyu":3254,"sirih":3255,"rad":3256,"keputih":3257,"cibatu":3258,"184":3259,"cepu":3260,"balen":3261,"kliwon":3262,"jogja":3263,"1b":3264,"dki":3265,"ner":3266,"kot":3267,"baby":3268,"182":3269,"muk":3270,"syi":3271,"ue":3272,"mac":3273,"aling":3274,"sukaluyu":3275,"belit":3276,"baturaja":3277,"senang":3278,"cibeber":3279,"sukamukti":3280,"cisarua":3281,"borob":3282,"atta":3283,"suki":3284,"aris":3285,"perin":3286,"kaliman":3287,"harun":3288,"sukah":3289,"sukamanah":3290,"golden":3291,"mundu":3292,"asemrowo":3293,"gelora":3294,"martad":3295,"ratna":3296,"cikole":3297,"driyorejo":3298,"ciater":3299,"cal":3300,"majal":3301,"panti":3302,"anggal":3303,"caya":3304,"jahe":3305,"palembang":3306,"fried":3307,"214":3308,"ida":3309,"nyi":3310,"ero":3311,"suna":3312,"dapur":3313,"dew":3314,"palang":3315,"ngawi":3316,"utomo":3317,"cijantung":3318,"finance":3319,"dirgantara":3320,"mrangg":3321,"praya":3322,"sok":3323,"cibar":3324,"jay":3325,"kue":3326,"wonokusumo":3327,"gerbang":3328,"padurenan":3329,"mranggen":3330,"ach":3331,"d1":3332,"hy":3333,"nah":3334,"sha":3335,"wor":3336,"sub":3337,"subur":3338,"esa":3339,"jatisampurna":3340,"elektronik":3341,"sna":3342,"utung":3343,"sepa":3344,"rej":3345,"pakulon":3346,"mulih":3347,"benua":3348,"cakran":3349,"sidodadi":3350,"kunjang":3351,"rembang":3352,"brayan":3353,"hidayat":3354,"bendu":3355,"awai":3356,"prabumulih":3357,"cihideung":3358,"perintis":3359,"pakulonan":3360,"cung":3361,"drama":3362,"tala":3363,"kora":3364,"bagus":3365,"panas":3366,"kotabumi":3367,"menanggal":3368,"008":3369,"leman":3370,"indom":3371,"sindur":3372,"gond":3373,"guru":3374,"malik":3375,"gombong":3376,"yogyakarta":3377,"8a":3378,"bran":3379,"mati":3380,"oe":3381,"opu":3382,"enim":3383,"elan":3384,"sit":3385,"gianyar":3386,"parakan":3387,"350":3388,"umbuh":3389,"kedawung":3390,"jaksa":3391,"datuk":3392,"rame":3393,"non":3394,"pagi":3395,"babe":3396,"bontang":3397,"gilan":3398,"kubu":3399,"kusum":3400,"pemurus":3401,"janur":3402,"c2":3403,"jamp":3404,"kungan":3405,"uang":3406,"any":3407,"amba":3408,"cigadung":3409,"sutan":3410,"usa":3411,"banta":3412,"laya":3413,"sop":3414,"cake":3415,"pramuka":3416,"kend":3417,"udin":3418,"tegalrejo":3419,"hidayah":3420,"abian":3421,"sesetan":3422,"cakranegara":3423,"bc":3424,"tara":3425,"wek":3426,"keling":3427,"sikambing":3428,"pakal":3429,"akarya":3430,"pengad":3431,"peter":3432,"sebelum":3433,"9a":3434,"dasari":3435,"wet":3436,"ze":3437,"siang":3438,"galuh":3439,"243":3440,"cibodasari":3441,"kasihan":3442,"rorotan":3443,"gamping":3444,"dramaga":3445,"lumbu":3446,"iskand":3447,"sebrang":3448,"moch":3449,"sol":3450,"ageng":3451,"kraton":3452,"setro":3453,"kadu":3454,"gulung":3455,"kalidoni":3456,"jne":3457,"tp":3458,"cipu":3459,"akas":3460,"somba":3461,"tanjungsari":3462,"cabang":3463,"192":3464,"telanai":3465,"kenanga":3466,"pedak":3467,"iskandar":3468,"ins":3469,"aksa":3470,"sud":3471,"toha":3472,"soang":3473,"mbok":3474,"mayangan":3475,"cerme":3476,"computer":3477,"cipadu":3478,"sumatera":3479,"blanca":3480,"payakumbuh":3481,"lad":3482,"sli":3483,"11a":3484,"abd":3485,"sakit":3486,"offi":3487,"asuka":3488,"b3":3489,"panjer":3490,"boto":3491,"manan":3492,"seke":3493,"waras":3494,"ponsel":3495,"solok":3496,"pakam":3497,"peny":3498,"sunda":3499,"tenayan":3500,"009":3501,"kahuripan":3502,"ngagelrejo":3503,"411":3504,"borong":3505,"flor":3506,"kit":3507,"malam":3508,"ngga":3509,"ena":3510,"embong":3511,"tomo":3512,"bagan":3513,"cilegon":3514,"tela":3515,"malala":3516,"banjaran":3517,"bojongsoang":3518,"abadijaya":3519,"casablanca":3520,"ciganjur":3521,"universitas":3522,"telanaipura":3523,"dk":3524,"nai":3525,"amai":3526,"erfina":3527,"rika":3528,"maje":3529,"sagulung":3530,"asian":3531,"mansion":3532,"poa":3533,"morawa":3534,"parf":3535,"ranji":3536,"nganjuk":3537,"mustik":3538,"cempedak":3539,"kids":3540,"link":3541,"segar":3542,"furnit":3543,"cijerah":3544,"eb":3545,"pum":3546,"soka":3547,"ubung":3548,"xvi":3549,"kepatihan":3550,"sumerta":3551,"ringin":3552,"maul":3553,"pay":3554,"bayan":3555,"jatirasa":3556,"tex":3557,"rumput":3558,"hamid":3559,"cendra":3560,"dra":3561,"tali":3562,"wuni":3563,"aru":3564,"kolam":3565,"maguwo":3566,"mare":3567,"ranti":3568,"rejosari":3569,"pamo":3570,"tallo":3571,"clean":3572,"veteran":3573,"kc":3574,"cise":3575,"onia":3576,"baros":3577,"ulir":3578,"ism":3579,"mebel":3580,"male":3581,"281":3582,"sukodono":3583,"airlangga":3584,"80361":3585,"dsn":3586,"lumajang":3587,"hati":3588,"nis":3589,"treng":3590,"anu":3591,"ungu":3592,"ela":3593,"kopera":3594,"roto":3595,"dolok":3596,"langun":3597,"rajawali":3598,"jurit":3599,"otto":3600,"kery":3601,"parigi":3602,"irig":3603,"landasan":3604,"furni":3605,"sayur":3606,"maguwoharjo":3607,"7a":3608,"ijo":3609,"lali":3610,"md":3611,"van":3612,"insp":3613,"kor":3614,"sito":3615,"dag":3616,"159":3617,"wih":3618,"cipulir":3619,"puluh":3620,"damar":3621,"kertajaya":3622,"kemiling":3623,"ciawi":3624,"dharma":3625,"sandu":3626,"majalaya":3627,"614":3628,"tigar":3629,"sapi":3630,"harja":3631,"kuang":3632,"rest":3633,"kuni":3634,"busana":3635,"kangin":3636,"tembok":3637,"rajeg":3638,"c3":3639,"val":3640,"pakan":3641,"prajurit":3642,"melawai":3643,"truno":3644,"ngemplak":3645,"fut":3646,"jin":3647,"mend":3648,"oti":3649,"sl":3650,"sleman":3651,"kep":3652,"cija":3653,"ado":3654,"emp":3655,"unda":3656,"kelur":3657,"pertam":3658,"lio":3659,"menara":3660,"temanggung":3661,"manggarai":3662,"menganti":3663,"electr":3664,"kusumah":3665,"malalayang":3666,"koperasi":3667,"tat":3668,"tpu":3669,"upu":3670,"rt03":3671,"perwira":3672,"paning":3673,"polo":3674,"berung":3675,"puspa":3676,"pamu":3677,"sury":3678,"nagari":3679,"express":3680,"floor":3681,"omah":3682,"sara":3683,"angi":3684,"angs":3685,"kau":3686,"poli":3687,"wir":3688,"made":3689,"parak":3690,"garan":3691,"patah":3692,"khas":3693,"morok":3694,"zai":3695,"tiban":3696,"timor":3697,"und":3698,"bobo":3699,"warakas":3700,"gado":3701,"pesa":3702,"handa":3703,"harjosari":3704,"lintas":3705,"plaju":3706,"cibiru":3707,"kruk":3708,"lese":3709,"kisaran":3710,"mustikasari":3711,"morokrembangan":3712,"had":3713,"iz":3714,"jorong":3715,"ld":3716,"ys":3717,"maim":3718,"lippo":3719,"ampera":3720,"kotabaru":3721,"pep":3722,"bent":3723,"petemon":3724,"hijab":3725,"limau":3726,"fatah":3727,"turen":3728,"chicken":3729,"buduran":3730,"furniture":3731,"011":3732,"ple":3733,"distri":3734,"bakery":3735,"mob":3736,"vie":3737,"pema":3738,"klum":3739,"gelam":3740,"sekret":3741,"labuh":3742,"perkasa":3743,"taris":3744,"majalengka":3745,"bla":3746,"yas":3747,"cim":3748,"ciki":3749,"bari":3750,"kawi":3751,"barata":3752,"wiy":3753,"much":3754,"2022":3755,"mentawa":3756,"lanud":3757,"kamar":3758,"talun":3759,"martapura":3760,"kelontong":3761,"office":3762,"fan":3763,"uju":3764,"west":3765,"zak":3766,"notaris":3767,"cimone":3768,"siwalan":3769,"bayu":3770,"pant":3771,"rono":3772,"puran":3773,"purbali":3774,"cot":3775,"183":3776,"185":3777,"daran":3778,"gunungpati":3779,"rumbai":3780,"byp":3781,"cellular":3782,"purbalingga":3783,"bpr":3784,"dg":3785,"nera":3786,"arya":3787,"kebalen":3788,"indi":3789,"toba":3790,"baga":3791,"lay":3792,"jatimekar":3793,"melong":3794,"lamper":3795,"bengkong":3796,"tambakrejo":3797,"kedon":3798,"gondo":3799,"setiamekar":3800,"mertoyudan":3801,"umudi":3802,"krukut":3803,"bni":3804,"fah":3805,"xvii":3806,"arah":3807,"raud":3808,"kesiman":3809,"kapt":3810,"panyi":3811,"jayapura":3812,"10a":3813,"lab":3814,"mandi":3815,"endang":3816,"part":3817,"parong":3818,"jurumudi":3819,"kreo":3820,"majap":3821,"pesisir":3822,"nerada":3823,"6a":3824,"club":3825,"gin":3826,"masa":3827,"peka":3828,"murah":3829,"matah":3830,"inangor":3831,"pemogan":3832,"tangkil":3833,"tempe":3834,"jatinangor":3835,"delima":3836,"parongpong":3837,"oh":3838,"tre":3839,"yon":3840,"ath":3841,"aster":3842,"tidar":3843,"ulia":3844,"kaw":3845,"papang":3846,"selamat":3847,"depo":3848,"padasuka":3849,"simomulyo":3850,"kademangan":3851,"katapang":3852,"pacet":3853,"rizky":3854,"queen":3855,"012":3856,"424":3857,"hutan":3858,"minang":3859,"nota":3860,"pandu":3861,"biran":3862,"177":3863,"endung":3864,"kanak":3865,"sumbersari":3866,"polonia":3867,"jember":3868,"nangge":3869,"kemerd":3870,"klampis":3871,"lr":3872,"nun":3873,"vis":3874,"bagi":3875,"warteg":3876,"15138":3877,"marz":3878,"marelan":3879,"mil":3880,"semanggi":3881,"kenari":3882,"srik":3883,"sangatta":3884,"juna":3885,"benoa":3886,"hikmah":3887,"sidempuan":3888,"cinang":3889,"nyak":3890,"upt":3891,"wak":3892,"ambo":3893,"ambang":3894,"kere":3895,"cigu":3896,"bug":3897,"majel":3898,"boja":3899,"manukan":3900,"poh":3901,"ampenan":3902,"kaliasin":3903,"mars":3904,"leukan":3905,"luwih":3906,"pitan":3907,"191":3908,"play":3909,"global":3910,"jengkol":3911,"hidup":3912,"tigaraksa":3913,"panyileukan":3914,"yun":3915,"alat":3916,"pande":3917,"pasu":3918,"pematang":3919,"jahit":3920,"letda":3921,"shoes":3922,"legi":3923,"camar":3924,"dayeuhkolot":3925,"kalimantan":3926,"majelis":3927,"oto":3928,"xy":3929,"pandau":3930,"serengan":3931,"vila":3932,"pamek":3933,"brawi":3934,"14240":3935,"baloi":3936,"ean":3937,"east":3938,"f1":3939,"soro":3940,"uma":3941,"cimeun":3942,"dipo":3943,"dawa":3944,"manah":3945,"jatimulyo":3946,"309":3947,"uduk":3948,"sentul":3949,"grosir":3950,"jep":3951,"jelutung":3952,"krian":3953,"cendana":3954,"kabup":3955,"kranggan":3956,"paninggilan":3957,"matahari":3958,"cimeunyan":3959,"a5":3960,"out":3961,"ering":3962,"cisalak":3963,"sudar":3964,"barak":3965,"tabat":3966,"selong":3967,"jatiluhur":3968,"harum":3969,"pil":3970,"242":3971,"letjen":3972,"pringsewu":3973,"manguharjo":3974,"maimun":3975,"chan":3976,"pgri":3977,"vari":3978,"alak":3979,"noto":3980,"rt04":3981,"pagel":3982,"ref":3983,"gabus":3984,"170":3985,"peja":3986,"kaliu":3987,"mej":3988,"ganda":3989,"hub":3990,"11730":3991,"sedap":3992,"sadar":3993,"banyum":3994,"gemilang":3995,"3b":3996,"cuk":3997,"sama":3998,"bugel":3999,"tapa":4000,"sidok":4001,"dieng":4002,"pano":4003,"rez":4004,"jatim":4005,"bondo":4006,"mia":4007,"rahmat":4008,"besuki":4009,"padu":4010,"sumba":4011,"bungo":4012,"gunungsari":4013,"mahk":4014,"burung":4015,"trik":4016,"11610":4017,"nagrak":4018,"loktabat":4019,"mangunjaya":4020,"purwantoro":4021,"baratajaya":4022,"nanggewer":4023,"aek":4024,"angsana":4025,"buku":4026,"java":4027,"arief":4028,"persa":4029,"mantri":4030,"179":4031,"wil":4032,"padat":4033,"jual":4034,"kulur":4035,"ily":4036,"rinj":4037,"baitul":4038,"cipadung":4039,"kejaksan":4040,"kakap":4041,"bd":4042,"kala":4043,"wuk":4044,"yati":4045,"rach":4046,"jatimelati":4047,"14450":4048,"anggar":4049,"semolo":4050,"pemban":4051,"kebay":4052,"tonjong":4053,"213":4054,"wm":4055,"keng":4056,"cipo":4057,"sup":4058,"tap":4059,"maos":4060,"jeron":4061,"270":4062,"ulujami":4063,"muna":4064,"wash":4065,"kris":4066,"maphar":4067,"b5":4068,"tj":4069,"angsiang":4070,"keja":4071,"cibad":4072,"adji":4073,"kawa":4074,"edang":4075,"lawu":4076,"polim":4077,"sepat":4078,"andra":4079,"pale":4080,"bintan":4081,"kedungwuni":4082,"rempoa":4083,"sukamulya":4084,"afrika":4085,"boyolali":4086,"hills":4087,"hur":4088,"cir":4089,"ess":4090,"pap":4091,"mandau":4092,"cawang":4093,"196":4094,"198":4095,"gedebage":4096,"kulu":4097,"gela":4098,"jalak":4099,"seping":4100,"mandalajati":4101,"baranangsiang":4102,"pacitan":4103,"mantrijeron":4104,"fak":4105,"uty":4106,"esangan":4107,"mod":4108,"188":4109,"jamu":4110,"rawasari":4111,"pedes":4112,"camat":4113,"magetan":4114,"ronggo":4115,"wesi":4116,"impian":4117,"miftah":4118,"sepinggan":4119,"ilan":4120,"anye":4121,"inci":4122,"kajen":4123,"siaga":4124,"jol":4125,"pab":4126,"babadan":4127,"loket":4128,"puji":4129,"agara":4130,"witan":4131,"jiwo":4132,"207":4133,"pakisa":4134,"semin":4135,"kemba":4136,"pemda":4137,"tangk":4138,"kurnia":4139,"puncak":4140,"acces":4141,"16514":4142,"laweh":4143,"pagesangan":4144,"lotus":4145,"slipi":4146,"pakisaji":4147,"eko":4148,"fres":4149,"keu":4150,"cidadap":4151,"supri":4152,"jayak":4153,"induk":4154,"ros":4155,"wilangun":4156,"pulsa":4157,"resta":4158,"balek":4159,"cemer":4160,"gent":4161,"simpangan":4162,"rangkas":4163,"walu":4164,"ikhlas":4165,"anugrah":4166,"centre":4167,"siantan":4168,"snack":4169,"fc":4170,"ft":4171,"pre":4172,"keti":4173,"orang":4174,"pandean":4175,"sero":4176,"180":4177,"pipitan":4178,"nawi":4179,"yamukti":4180,"244":4181,"sampang":4182,"prang":4183,"teras":4184,"kroya":4185,"kanigaran":4186,",,":4187,"get":4188,"ciri":4189,"sumen":4190,"adan":4191,"buil":4192,"muria":4193,"alipan":4194,"sewon":4195,"mongin":4196,"200":4197,"bera":4198,"telkom":4199,"tarakan":4200,"imperi":4201,"pekalipan":4202,"peguy":4203,"11720":4204,"konter":4205,"slawi":4206,"papanggo":4207,"balekambang":4208,"peguyangan":4209,"311":4210,"hukum":4211,"kok":4212,"bugis":4213,"tay":4214,"joko":4215,"dai":4216,"ish":4217,"god":4218,"beta":4219,"selaparang":4220,"gerah":4221,"hasy":4222,"mayj":4223,"wadas":4224,"pertamina":4225,"d2":4226,"ano":4227,"asr":4228,"kode":4229,"ulis":4230,"bapak":4231,"its":4232,"puh":4233,"kalima":4234,"pramb":4235,"bella":4236,"uddin":4237,"game":4238,"syari":4239,"cokroam":4240,"jon":4241,"ppat":4242,"anjas":4243,"arta":4244,"ereng":4245,"ciro":4246,"list":4247,"biro":4248,"tenggar":4249,"mijen":4250,"187":4251,"pelita":4252,"470":4253,"widya":4254,"madiyah":4255,"muhammadiyah":4256,"sinduadi":4257,"anugerah":4258,"pamekasan":4259,"412":4260,"gant":4261,"kak":4262,"lal":4263,"obat":4264,"qi":4265,"nge":4266,"kemay":4267,"nomer":4268,"ent":4269,"tabanan":4270,"sario":4271,"jatiranggon":4272,"sawungg":4273,"pih":4274,"pelangi":4275,"351":4276,"pami":4277,"jelupang":4278,"weru":4279,"walk":4280,"wenang":4281,"gundih":4282,"sidikalang":4283,"jampi":4284,"pump":4285,"ey":4286,"fer":4287,"hp":4288,"nati":4289,"pkb":4290,"alf":4291,"cimun":4292,"karangsatria":4293,"karangbahagia":4294,"torejo":4295,"tarum":4296,"mekarwangi":4297,"brimob":4298,"basuki":4299,"union":4300,"kapten":4301,"aba":4302,"gla":4303,"jus":4304,"luk":4305,"ms":4306,"pk":4307,"sron":4308,"tho":4309,"amur":4310,"nogo":4311,"ciman":4312,"tida":4313,"dil":4314,"baju":4315,"pudak":4316,"bonjol":4317,"coun":4318,"kiran":4319,"cakra":4320,"line":4321,"tailor":4322,"sangereng":4323,"sulawesi":4324,"beauty":4325,"gunawan":4326,"semolowaru":4327,"cihan":4328,"rias":4329,"keli":4330,"sabr":4331,"bangil":4332,"14350":4333,"anggungan":4334,"sememi":4335,"mekarmukti":4336,"wahab":4337,"mojolangu":4338,"hamka":4339,"cireunde":4340,"medika":4341,"61256":4342,"caringin":4343,"bangkalan":4344,"parfum":4345,"pamoyanan":4346,"sumenep":4347,"imperial":4348,"pumpungan":4349,"cireundeu":4350,"4b":4351,"bca":4352,"jahan":4353,"akses":4354,"sig":4355,"ekh":4356,"terang":4357,"kembar":4358,"pradah":4359,"selaprang":4360,"curup":4361,"kerinci":4362,"halma":4363,"belawan":4364,"onic":4365,"madiun":4366,"walantaka":4367,"ketintang":4368,"baiturrahman":4369,"sapta":4370,"belitung":4371,"cigugur":4372,"c5":4373,"nel":4374,"syar":4375,"scho":4376,"kedu":4377,"ciba":4378,"sutorejo":4379,"bule":4380,"oking":4381,"pandaan":4382,"saung":4383,"laban":4384,"lombok":4385,"murai":4386,"wong":4387,"tea":4388,"186":4389,"menan":4390,"galur":4391,"wonogiri":4392,"lambang":4393,"550":4394,"smpn":4395,"syekh":4396,"farm":4397,"ppy":4398,"ibtida":4399,"percetakan":4400,"a4":4401,"a6":4402,"nua":4403,"oleh":4404,"yasa":4405,"urejo":4406,"cimb":4407,"kapu":4408,"puyuh":4409,"aian":4410,"17111":4411,"kalibaru":4412,"market":4413,"medo":4414,"gil":4415,"gugu":4416,"wonok":4417,"senayan":4418,"pedan":4419,"rental":4420,"cond":4421,"kasu":4422,"expr":4423,"11460":4424,"family":4425,"honda":4426,"begalung":4427,"dunia":4428,"pekojan":4429,"tpq":4430,"316":4431,"cind":4432,"dad":4433,"alengka":4434,"sutera":4435,"riya":4436,"rimba":4437,"pany":4438,"indung":4439,"ite":4440,"terra":4441,"guntur":4442,"sukagalih":4443,"231":4444,"mahar":4445,"nias":4446,"nila":4447,"gerung":4448,"dalung":4449,"12630":4450,"istiq":4451,"cikande":4452,"nologi":4453,"fu":4454,"gak":4455,"guk":4456,"hasi":4457,"huta":4458,"lala":4459,"padi":4460,"citangkil":4461,"siswa":4462,"sele":4463,"sooko":4464,"pua":4465,"bunder":4466,"dahlia":4467,"plus":4468,"tulis":4469,"sukarasa":4470,"15310":4471,"elektro":4472,"cicalengka":4473,"gondangdia":4474,"paseban":4475,"sitoli":4476,"sawunggaling":4477,"pradahkali":4478,"mbo":4479,"zo":4480,"zona":4481,"bum":4482,"ulak":4483,"macan":4484,"pabu":4485,"pani":4486,"juh":4487,"371":4488,"sakinah":4489,"brat":4490,"mojosongo":4491,"try":4492,"kato":4493,"sugihan":4494,"taklim":4495,"thamrin":4496,"restaur":4497,"rangkasbitung":4498,"srondol":4499,"b4":4500,"ff":4501,"hr":4502,"arukan":4503,"alt":4504,"sume":4505,"butik":4506,"tod":4507,"pabri":4508,"bila":4509,"kaliwungu":4510,"lubis":4511,"matr":4512,"kampar":4513,"prov":4514,"cate":4515,"konv":4516,"megah":4517,"lent":4518,"sukadamai":4519,"pacce":4520,"fresh":4521,"hasyim":4522,"pkbm":4523,"school":4524,"restaurant":4525,"634":4526,"kg":4527,"pok":4528,"lili":4529,"point":4530,"seno":4531,"molek":4532,"masy":4533,"karangpa":4534,"semut":4535,"pie":4536,"sena":4537,"gani":4538,"terate":4539,"nanggalo":4540,"sahabat":4541,"sudarso":4542,"tenggarong":4543,"yek":4544,"ardi":4545,"raji":4546,"keru":4547,"buluh":4548,"engkang":4549,"kelud":4550,"sabar":4551,"manjah":4552,"losari":4553,"teun":4554,"serd":4555,"pena":4556,"merb":4557,"480":4558,"src":4559,"pengadegan":4560,"guguak":4561,"010":4562,"215":4563,"613":4564,"geg":4565,"zza":4566,"atlan":4567,"enjo":4568,"tono":4569,"sibol":4570,"ede":4571,"edel":4572,"jatiwarna":4573,"kuis":4574,"guguk":4575,"peman":4576,"294":4577,"kalasan":4578,"bahar":4579,"olah":4580,"siliwangi":4581,"bantarjati":4582,"30961":4583,"sibolga":4584,"gk":4585,"iq":4586,"sti":4587,"slam":4588,"tv":4589,"enda":4590,"jaja":4591,"jayamukti":4592,"karo":4593,"karu":4594,"dino":4595,"jogo":4596,"endeng":4597,"kalijati":4598,"mura":4599,"223":4600,"irma":4601,"pinangsia":4602,"sekupang":4603,"lery":4604,"palangka":4605,"kcp":4606,"uyu":4607,"arjuna":4608,"alum":4609,"asli":4610,"suta":4611,"empu":4612,"perti":4613,"saba":4614,"saud":4615,"jatibarang":4616,"soleh":4617,"adia":4618,"225":4619,"sale":4620,"pemak":4621,"patr":4622,"mariso":4623,"karim":4624,"yosowilangun":4625,"ternate":4626,"zahra":4627,"gegerkalong":4628,"toddo":4629,"216":4630,"aan":4631,"geri":4632,"hen":4633,"kebra":4634,"taw":4635,"tayu":4636,"karun":4637,"mauk":4638,"saf":4639,"bantan":4640,"lap":4641,"revo":4642,"bim":4643,"godean":4644,"dolo":4645,"bako":4646,"wib":4647,"purba":4648,"189":4649,"station":4650,"rawajati":4651,"pedungan":4652,"dini":4653,"rambi":4654,"cangkuang":4655,"tulus":4656,"kassi":4657,"pakualam":4658,"martabak":4659,"ridho":4660,"adjie":4661,"paccerak":4662,"kebraon":4663,"tren":4664,"insan":4665,"cibabat":4666,"tiara":4667,"sising":4668,"digit":4669,"edu":4670,"atiga":4671,"poso":4672,"17124":4673,"kaliki":4674,"teur":4675,"yanti":4676,"haryono":4677,"cipam":4678,"sawan":4679,"pir":4680,"cileng":4681,"batubulan":4682,"tange":4683,"sidomukti":4684,"55281":4685,"teknologi":4686,"bongkaran":4687,"paris":4688,"kertapati":4689,"17411":4690,"tahunan":4691,"music":4692,"sederhana":4693,"cimuning":4694,"manjahlega":4695,"hut":4696,"lul":4697,"rel":4698,"ciangsana":4699,"adhi":4700,"bareng":4701,"die":4702,"bab":4703,"room":4704,"moyo":4705,"semal":4706,"harm":4707,"praw":4708,"goro":4709,"meneng":4710,"552":4711,"bron":4712,"laswi":4713,"wungkuk":4714,"muktiharjo":4715,"cky":4716,"lemahwungkuk":4717,"meubel":4718,"cinangka":4719,"syariah":4720,"demangan":4721,"eur":4722,"glu":4723,"kuripan":4724,"mem":4725,"rana":4726,"cit":4727,"kosong":4728,"tawar":4729,"engg":4730,"pager":4731,"11480":4732,"sayang":4733,"mana":4734,"bakung":4735,"endek":4736,"195":4737,"197":4738,"restu":4739,"227":4740,"pelem":4741,"langen":4742,"bringin":4743,"katon":4744,"ihsan":4745,"tanggul":4746,"kwit":4747,"view":4748,"cag":4749,"nyo":4750,"smart":4751,"nom":4752,"ciamp":4753,"suli":4754,"roda":4755,"baki":4756,"terusan":4757,"semp":4758,"perumnas":4759,"kimia":4760,"telag":4761,"mergang":4762,"4039":4763,"antang":4764,"232":4765,"tenjo":4766,"pamengkang":4767,"plat":4768,"krist":4769,"glodok":4770,"laks":4771,"ngadiluwih":4772,"bhin":4773,"plastik":4774,"waroeng":4775,"daerah":4776,"kereta":4777,"pagelaran":4778,"terrace":4779,"karangpawitan":4780,"gantung":4781,"noer":4782,"toys":4783,"siwa":4784,"bos":4785,"atih":4786,"pog":4787,"cilendek":4788,"222":4789,"gard":4790,"petta":4791,"damaian":4792,"pariaman":4793,"sirna":4794,"leuwiliang":4795,"bersama":4796,"undeuy":4797,"mangkubumi":4798,"digital":4799,"mergangsan":4800,"bahan":4801,"e1":4802,"hand":4803,"stan":4804,"arsa":4805,"aries":4806,"bac":4807,"pole":4808,"logis":4809,"ity":4810,"renon":4811,"pasteur":4812,"jatijajar":4813,"17a":4814,"terpadu":4815,"purna":4816,"sempaja":4817,"luwuk":4818,"282":4819,"jangkungan":4820,"produ":4821,"kedungdoro":4822,"sangiang":4823,"pedurenan":4824,"15412":4825,"anding":4826,"cihe":4827,"kukusan":4828,"sidakarya":4829,"wulan":4830,"natar":4831,"ville":4832,"cipeundeuy":4833,"anyer":4834,"seminyak":4835,"building":4836,"slamet":4837,"ciampea":4838,"622":4839,"7b":4840,"pran":4841,"uru":4842,"tiki":4843,"tilan":4844,"kotak":4845,"taba":4846,"unden":4847,"kafi":4848,"boyan":4849,"dayu":4850,"mani":4851,"seka":4852,"wilis":4853,"karangrejo":4854,"tebu":4855,"cour":4856,"kua":4857,"adiwer":4858,"193":4859,"bener":4860,"banjarnegara":4861,"mekarjaya":4862,"pler":4863,"cargo":4864,"brajan":4865,"turangga":4866,"pandeg":4867,"hadiah":4868,"imog":4869,"sekejati":4870,"national":4871,"adiwerna":4872,"abe":4873,"dand":4874,"gd":4875,"mc":4876,"skin":4877,"ray":4878,"kober":4879,"pertani":4880,"panongan":4881,"saudara":4882,"listri":4883,"bangsa":4884,"gay":4885,"bakalan":4886,"semanding":4887,"kim":4888,"gedang":4889,"buni":4890,"drg":4891,"sentra":4892,"proyek":4893,"muntilan":4894,"lembur":4895,"cibeu":4896,"sukadana":4897,"bpk":4898,"maccini":4899,"sokaraja":4900,"abiansemal":4901,"miftahul":4902,"c6":4903,"nt":4904,"nen":4905,"ary":4906,"alalak":4907,"noor":4908,"enak":4909,"supa":4910,"kela":4911,"mau":4912,"sio":4913,"bolang":4914,"manado":4915,"warno":4916,"jatipulo":4917,"kalis":4918,"harmon":4919,"sukara":4920,"resi":4921,"sudiang":4922,"239":4923,"288":4924,"print":4925,"dina":4926,"lembaga":4927,"kondang":4928,"apotik":4929,"jeki":4930,"10640":4931,"hewan":4932,"wirobrajan":4933,"tasik":4934,"meriam":4935,"banyumas":4936,"5b":4937,"d3":4938,"gp":4939,"tes":4940,"xix":4941,"rth":4942,"ahi":4943,"river":4944,"dita":4945,"pagu":4946,"bot":4947,"happy":4948,"bone":4949,"margad":4950,"karangasem":4951,"term":4952,"201":4953,"234":4954,"gallery":4955,"peda":4956,"airla":4957,"setra":4958,"prambanan":4959,"colomadu":4960,"lesan":4961,"kadipaten":4962,"bantaeng":4963,"listrik":4964,"1c":4965,"cc":4966,"dh":4967,"sorong":4968,"ves":4969,"ngoro":4970,"ambangan":4971,"amulya":4972,"nos":4973,"rian":4974,"ariat":4975,"kapal":4976,"mapang":4977,"wood":4978,"maros":4979,"berlian":4980,"sukma":4981,"18a":4982,"sami":4983,"resmi":4984,"kenj":4985,"sukajaya":4986,"253":4987,"senapel":4988,"kertak":4989,"hani":4990,"prek":4991,"rangkah":4992,"polsek":4993,"demang":4994,"nagri":4995,"dekaan":4996,"balongsari":4997,"kwala":4998,"kemerdekaan":4999,"angkringan":5000,"cihanjuang":5001,"dinoyo":5002,"mapanget":5003,"senapelan":5004,"bs":5005,"lg":5006,"nir":5007,"pali":5008,"sman":5009,"ramp":5010,"kesat":5011,"eman":5012,"karangg":5013,"perw":5014,"paus":5015,"papa":5016,"sail":5017,"istana":5018,"pasa":5019,"15a":5020,"agro":5021,"karangploso":5022,"208":5023,"madura":5024,"semi":5025,"melia":5026,"antri":5027,"60134":5028,"rawasih":5029,"prok":5030,"gambiran":5031,"mess":5032,"international":5033,"rizki":5034,"bouti":5035,"peterongan":5036,"fik":5037,"plan":5038,"alai":5039,"kead":5040,"ass":5041,"ery":5042,"inten":5043,"kafe":5044,"simal":5045,"pauh":5046,"iskin":5047,"rejeki":5048,"som":5049,"kub":5050,"gube":5051,"penel":5052,"cilan":5053,"kendari":5054,"stad":5055,"236":5056,"gunungsitoli":5057,"patrang":5058,"lamb":5059,"kedungwaru":5060,"tulip":5061,"sukamiskin":5062,"cukai":5063,"maricaya":5064,"satuan":5065,"junrejo":5066,"interna":5067,"lumba":5068,"serab":5069,"okolan":5070,"kapuas":5071,"bby":5072,"ning":5073,"pb":5074,"ans":5075,"rais":5076,"sila":5077,"dim":5078,"pajang":5079,"baji":5080,"sapu":5081,"roa":5082,"kotagede":5083,"kalib":5084,"203":5085,"guntung":5086,"semen":5087,"sembako":5088,"kemen":5089,"hard":5090,"cos":5091,"pijat":5092,"musl":5093,"salatiga":5094,"patra":5095,"geulis":5096,"pusp":5097,"tridaya":5098,"waduk":5099,"catering":5100,"tukang":5101,"ceria":5102,"15560":5103,"kutisari":5104,"printing":5105,"sukahati":5106,"cipocok":5107,"keuangan":5108,"cipamokolan":5109,"218":5110,"219":5111,"522":5112,"dpn":5113,"eum":5114,"fai":5115,"krang":5116,"pg":5117,"zu":5118,"ciga":5119,"tiharjo":5120,"rw02":5121,"mag":5122,"siring":5123,"jojo":5124,"johan":5125,"limus":5126,"jatiwangi":5127,"blak":5128,"pekap":5129,"agama":5130,"muja":5131,"terong":5132,"ley":5133,"samb":5134,"sampo":5135,"194":5136,"228":5137,"229":5138,"gorejo":5139,"kenali":5140,"251":5141,"tembesi":5142,"352":5143,"langkai":5144,"manggar":5145,"gandasari":5146,"cendrawasih":5147,"tumpang":5148,"lahat":5149,"sabrangan":5150,"glugur":5151,"produc":5152,"pertanian":5153,"217":5154,"623":5155,"dpr":5156,"wua":5157,"kesa":5158,"rw01":5159,"kartika":5160,"digi":5161,"jatimurni":5162,"15157":5163,"doyo":5164,"aik":5165,"karangtengah":5166,"seri":5167,"kanda":5168,"panglima":5169,"rancam":5170,"ball":5171,"balas":5172,"teladan":5173,"geprek":5174,"bengkulu":5175,"gero":5176,"base":5177,"fort":5178,"sukamantri":5179,"off":5180,"sitirejo":5181,"musik":5182,"barbershop":5183,"gembor":5184,"nirwana":5185,"aja":5186,"cus":5187,"edi":5188,"nasa":5189,"oke":5190,"xviii":5191,"arung":5192,"ngun":5193,"kepo":5194,"asah":5195,"sump":5196,"onel":5197,"paal":5198,"mud":5199,"mujah":5200,"hiang":5201,"paledang":5202,"balu":5203,"jamb":5204,"sumut":5205,"pemb":5206,"mina":5207,"tikala":5208,"kerja":5209,"swadaya":5210,"kahfi":5211,"rogojampi":5212,"16810":5213,"ngestiharjo":5214,").":5215,"dl":5216,"ika":5217,"syam":5218,"aler":5219,"alex":5220,"ega":5221,"layar":5222,"seb":5223,"ingan":5224,"jatikarya":5225,"muko":5226,"bondowo":5227,"tura":5228,"parman":5229,"adiarsa":5230,"padema":5231,"rup":5232,"belian":5233,"224":5234,"jamba":5235,"wanea":5236,"lorok":5237,"ugen":5238,"ureuh":5239,"katam":5240,"flamboyan":5241,"lampu":5242,"impun":5243,"mift":5244,"ciseureuh":5245,"trenggal":5246,"bondowoso":5247,"f2":5248,"gran":5249,"klu":5250,"kren":5251,"cihaur":5252,"cipanas":5253,"aks":5254,"aku":5255,"buan":5256,"kapa":5257,"sidan":5258,"daw":5259,"ponpes":5260,"15154":5261,"wage":5262,"blk":5263,"dom":5264,"capi":5265,"pria":5266,"puspi":5267,"bulula":5268,"janti":5269,"apartement":5270,"rekan":5271,"mojorejo":5272,"campaka":5273,"bangkala":5274,"borobudur":5275,"sendangmulyo":5276,"kesehatan":5277,"boutique":5278,"trenggalek":5279,"2100":5280,"a7":5281,"dhi":5282,"gara":5283,"inte":5284,"citarum":5285,"tid":5286,"kawung":5287,"sik":5288,"sae":5289,"bout":5290,"bangko":5291,"itc":5292,"doyong":5293,"peken":5294,"muj":5295,"muwa":5296,"206":5297,"hart":5298,"kura":5299,"pangal":5300,"menja":5301,"252":5302,"salem":5303,"cinambo":5304,"tingkir":5305,"pelajar":5306,"mojosari":5307,"kolonel":5308,"megam":5309,"nagreg":5310,"tahap":5311,"walet":5312,"limba":5313,"bantargebang":5314,"tours":5315,"mamuju":5316,"rusa":5317,"jayanti":5318,"redeb":5319,"ragajaya":5320,"nyiur":5321,"pakansari":5322,"cijaura":5323,"sumbawa":5324,"317":5325,"awi":5326,"dp":5327,"krt":5328,"nug":5329,"wringin":5330,"kebr":5331,"uro":5332,"akbar":5333,"jago":5334,"jom":5335,"pao":5336,"paga":5337,"sej":5338,"wartel":5339,"jatiraden":5340,"14260":5341,"ble":5342,"enden":5343,"marunda":5344,"teri":5345,"girang":5346,"kandis":5347,"pipa":5348,"pene":5349,"ruang":5350,"patar":5351,"seni":5352,"pusaka":5353,"santo":5354,"wadung":5355,"busway":5356,"17412":5357,"cikini":5358,"fotocopy":5359,"tropodo":5360,"muhamma":5361,"darussalam":5362,"aqua":5363,"e2":5364,"sto":5365,"kemp":5366,"akcaya":5367,"suha":5368,"empang":5369,"12b":5370,"soet":5371,"solu":5372,"muar":5373,"yanto":5374,"balung":5375,"batua":5376,"juanda":5377,"4037":5378,"bumiayu":5379,"dukuhturi":5380,"janan":5381,"dasan":5382,"sadang":5383,"tunggul":5384,"limbangan":5385,"cilimus":5386,"internasional":5387,"datar":5388,"firda":5389,"seafood":5390,"awahan":5391,"purnama":5392,"syiah":5393,"pradahkalikendal":5394,"pertiwi":5395,"015":5396,"9b":5397,"basi":5398,"bhak":5399,"cul":5400,"clo":5401,"ges":5402,"kati":5403,"laris":5404,"mj":5405,"quran":5406,"tla":5407,"sidam":5408,"dien":5409,"savia":5410,"rol":5411,"masale":5412,"14a":5413,"kanal":5414,"cipari":5415,"19a":5416,"krakata":5417,"tempel":5418,"pame":5419,"provin":5420,"bamb":5421,"tulangan":5422,"fil":5423,"blim":5424,"landung":5425,"sawojajar":5426,"gardenia":5427,"maling":5428,"kapasan":5429,"angkasa":5430,"lpg":5431,"ngesrep":5432,"oebobo":5433,"krakatau":5434,"ctor":5435,"ira":5436,"lkp":5437,"zen":5438,"arw":5439,"ketu":5440,"keput":5441,"cijag":5442,"ciwaru":5443,"uth":5444,"persero":5445,"baeng":5446,"seli":5447,"panda":5448,"lilin":5449,"lapan":5450,"moder":5451,"gapura":5452,"madyo":5453,"beru":5454,"kuin":5455,"kujang":5456,"balun":5457,"sukaasih":5458,"255":5459,"241":5460,"pempek":5461,"peli":5462,"271":5463,"gadingrejo":5464,"prop":5465,"sps":5466,"11750":5467,"legian":5468,"dempo":5469,"12510":5470,"13460":5471,"mushola":5472,"kinta":5473,"beliung":5474,"megamendung":5475,"d5":5476,"klapa":5477,"pind":5478,"remb":5479,"yeh":5480,"ars":5481,"amo":5482,"keman":5483,"rt05":5484,"cibuntu":5485,"suj":5486,"baruk":5487,"usah":5488,"pool":5489,"bangsal":5490,"yudis":5491,"190":5492,"221":5493,"233":5494,"235":5495,"abdi":5496,"erima":5497,"pasirsari":5498,"teluknaga":5499,"sambiroto":5500,"surau":5501,"inaq":5502,"apart":5503,"junan":5504,"batursari":5505,"steam":5506,"sepatu":5507,"cijagra":5508,"702":5509,"aqu":5510,"gok":5511,"krem":5512,"lhok":5513,"mid":5514,"arut":5515,"ase":5516,"ahli":5517,"sumar":5518,"diam":5519,"diwek":5520,"perpus":5521,"baamang":5522,"pancing":5523,"tamiang":5524,"liat":5525,"sekelo":5526,"bio":5527,"pekauman":5528,"mpok":5529,"terp":5530,"mirah":5531,"serut":5532,"mulung":5533,"lueng":5534,"rupih":5535,"tele":5536,"kebag":5537,"261":5538,"kahur":5539,"brigjen":5540,"tlogomas":5541,"90222":5542,"tompo":5543,"bedahan":5544,"lembah":5545,"siwalankerto":5546,"pabrik":5547,"masyhur":5548,"atlantis":5549,"lesanpuro":5550,"sidanegara":5551,"provinsi":5552,"sekeloa":5553,"313":5554,"cs":5555,"fl":5556,"gs":5557,"gama":5558,"spesi":5559,"wangan":5560,"kesawan":5561,"kecapi":5562,"astra":5563,"enam":5564,"cica":5565,"cipaku":5566,"komar":5567,"enggal":5568,"pajak":5569,"panan":5570,"sau":5571,"bosih":5572,"rom":5573,"sejati":5574,"16a":5575,"20371":5576,"piring":5577,"penerima":5578,"sty":5579,"292":5580,"362":5581,"indone":5582,"neo":5583,"ketabang":5584,"gurun":5585,"islamic":5586,"bhayan":5587,"mohon":5588,"kadia":5589,"pinggir":5590,"maruyung":5591,"cibarusah":5592,"betawi":5593,"paccerakkang":5594,"bhakti":5595,"modern":5596,"523":5597,"6117":5598,"aven":5599,"aulia":5600,"bj":5601,"jana":5602,"kuri":5603,"oli":5604,"sch":5605,"arto":5606,"ato":5607,"ciju":5608,"sukan":5609,"ulo":5610,"arab":5611,"kaos":5612,"tole":5613,"pertiga":5614,"tanete":5615,"papua":5616,"selapa":5617,"layung":5618,"rotan":5619,"rose":5620,"potong":5621,"sec":5622,"loh":5623,"warnet":5624,"wai":5625,"kalij":5626,"205":5627,"kembaran":5628,"hir":5629,"hiu":5630,"denp":5631,"199":5632,"alau":5633,"muslim":5634,"suruh":5635,"bulang":5636,"ganti":5637,"sriwijaya":5638,"posy":5639,"polda":5640,"rent":5641,"sektor":5642,"cibogo":5643,"11520":5644,"gusta":5645,"jajaran":5646,"pandanwangi":5647,"herbal":5648,"suropati":5649,"muttaq":5650,"sumatra":5651,"sinduharjo":5652,"syifa":5653,"sandubaya":5654,"klumpri":5655,"amurni":5656,"lambangsari":5657,"telagamurni":5658,"keputran":5659,"2c":5660,"230":5661,"b6":5662,"ev":5663,"ie":5664,"lun":5665,"langg":5666,"lant":5667,"nd":5668,"infor":5669,"sug":5670,"utu":5671,"paj":5672,"bae":5673,"alih":5674,"dawu":5675,"gogan":5676,"margorejo":5677,"tupa":5678,"204":5679,"hil":5680,"hong":5681,"sukses":5682,"palmeriam":5683,"penjahit":5684,"cep":5685,"belok":5686,"gardu":5687,"bengkalis":5688,"jenang":5689,"jannah":5690,"cilebut":5691,"mester":5692,"sekaran":5693,"pegadaian":5694,"cikokol":5695,"stabat":5696,"kutoarjo":5697,"thai":5698,"indihiang":5699,"bululawang":5700,"pertigaan":5701,"klumprik":5702,"644":5703,"apri":5704,"c7":5705,"data":5706,"hs":5707,"jet":5708,"ksp":5709,"maria":5710,"yus":5711,"ngenden":5712,"angun":5713,"rapak":5714,"ciha":5715,"baris":5716,"umpul":5717,"bap":5718,"panjunan":5719,"eksi":5720,"bogo":5721,"lai":5722,"ampl":5723,"ware":5724,"doa":5725,"mua":5726,"teja":5727,"sembi":5728,"guest":5729,"restau":5730,"balaraja":5731,"binangun":5732,"dani":5733,"238":5734,"256":5735,"salsa":5736,"garbus":5737,"tangki":5738,"jonggol":5739,"264":5740,"laras":5741,"581":5742,"707":5743,"prapto":5744,"hasanu":5745,"cisaat":5746,"gondanglegi":5747,"uyut":5748,"sutomo":5749,"daruss":5750,"gym":5751,"ledok":5752,"talaga":5753,"lesehan":5754,"basri":5755,"hin":5756,"pkl":5757,"panggang":5758,"segara":5759,"wut":5760,"anto":5761,"kesuma":5762,"aherang":5763,"akah":5764,"bugul":5765,"untung":5766,"edy":5767,"tamama":5768,"banaran":5769,"daud":5770,"sepak":5771,"andu":5772,"pakjo":5773,"pizza":5774,"penat":5775,"pras":5776,"teguh":5777,"pemas":5778,"pembangunan":5779,"gep":5780,"kertha":5781,"sani":5782,"cano":5783,"507":5784,"gane":5785,"gamb":5786,"keluarga":5787,"suradita":5788,"renggo":5789,"tekno":5790,"gemah":5791,"11530":5792,"bts":5793,"petogogan":5794,"sekretariat":5795,"mandiangin":5796,"pandeyan":5797,"pamijahan":5798,"firdaus":5799,"tamamaung":5800,"315":5801,"748":5802,"ee":5803,"kle":5804,"kepala":5805,"cimanggu":5806,"suh":5807,"kotam":5808,"komo":5809,"sipin":5810,"sisir":5811,"perjua":5812,"babu":5813,"bire":5814,"tengsin":5815,"17116":5816,"20a":5817,"hot":5818,"4055":5819,"antasari":5820,"krap":5821,"bungah":5822,"handil":5823,"273":5824,"manggung":5825,"kedungbadak":5826,"braga":5827,"bird":5828,"cihampel":5829,"salaman":5830,"sekarwangi":5831,"uday":5832,"13950":5833,"nyampl":5834,"swak":5835,"fitri":5836,"bungursari":5837,"peneleh":5838,"cihampelas":5839,"014":5840,"b7":5841,"dd":5842,"hala":5843,"run":5844,"wit":5845,"xxi":5846,"zy":5847,"alangan":5848,"kejur":5849,"inpres":5850,"rta":5851,"cid":5852,"tidung":5853,"online":5854,"adem":5855,"jaba":5856,"jababe":5857,"esta":5858,"tapak":5859,"kaut":5860,"kapur":5861,"bougen":5862,"13450":5863,"17148":5864,"mutia":5865,"rahim":5866,"serta":5867,"desi":5868,"colec":5869,"kia":5870,"vill":5871,"pule":5872,"melur":5873,"garu":5874,"pate":5875,"pele":5876,"289":5877,"wanita":5878,"tris":5879,"fach":5880,"alangu":5881,"bahu":5882,"singkil":5883,"keron":5884,"15414":5885,"pangandaran":5886,"sumoharjo":5887,"ambarawa":5888,"ahaji":5889,"kapasari":5890,"beach":5891,"titip":5892,"belimbing":5893,"ngunut":5894,"pangalengan":5895,"jababeka":5896,"302":5897,"8b":5898,"awang":5899,"bati":5900,"cek":5901,"ekar":5902,"g1":5903,"pm":5904,"qin":5905,"xa":5906,"arma":5907,"iner":5908,"tigo":5909,"adven":5910,"situt":5911,"tambung":5912,"life":5913,"layang":5914,"sarijadi":5915,"sekayu":5916,"loji":5917,"jatil":5918,"wagir":5919,"blue":5920,"bakaran":5921,"miai":5922,"209":5923,"sembung":5924,"piro":5925,"batujajar":5926,"226":5927,"melon":5928,"beneng":5929,"abah":5930,"sidorame":5931,"363":5932,"444":5933,"pluto":5934,"ilmu":5935,"gandus":5936,"11830":5937,"meruyung":5938,"steak":5939,"petern":5940,"glagah":5941,"sisingama":5942,"dawuan":5943,"016":5944,"3c":5945,"aca":5946,"bok":5947,"bkr":5948,"fish":5949,"qua":5950,"yuni":5951,"arca":5952,"kesam":5953,"tibu":5954,"oku":5955,"karad":5956,"sabi":5957,"boga":5958,"pasan":5959,"idm":5960,"bira":5961,"peju":5962,"wijen":5963,"mim":5964,"yom":5965,"gunting":5966,"beo":5967,"gubug":5968,"sukahaji":5969,"pia":5970,"caf":5971,"pulu":5972,"kebondalem":5973,"sambong":5974,"rujak":5975,"mena":5976,"musli":5977,"selayan":5978,"antra":5979,"galung":5980,"27a":5981,"chry":5982,"uluw":5983,"sina":5984,"lingkungan":5985,"surakarta":5986,"11840":5987,"muhaj":5988,"bendan":5989,"acc":5990,"sori":5991,"bppt":5992,"tulungrejo":5993,"villas":5994,"cikeas":5995,"penyet":5996,"maleber":5997,"yunus":5998,"maharatu":5999,"pandeglang":6000,"tibubeneng":6001,"canggu":6002,"mn":6003,"ob":6004,"prum":6005,"rc":6006,"sky":6007,"yangan":6008,"amer":6009,"ende":6010,"ulam":6011,"ore":6012,"kaban":6013,"main":6014,"pawon":6015,"pajajaran":6016,"haci":6017,"ide":6018,"blambangan":6019,"sou":6020,"17145":6021,"kalibanteng":6022,"kalipancur":6023,"winong":6024,"bona":6025,"holi":6026,"kuan":6027,"gura":6028,"pangkal":6029,"piere":6030,"negla":6031,"prib":6032,"str":6033,"satpam":6034,"paman":6035,"sukoh":6036,"audio":6037,"dining":6038,"diniyah":6039,"kedunghalang":6040,"aparna":6041,"90245":6042,"bangkinang":6043,"argomulyo":6044,"speed":6045,"work":6046,"gondrong":6047,"cibaduyut":6048,"margadana":6049,"210":6050,"314":6051,"513":6052,"gf":6053,"lada":6054,"sanggar":6055,"vol":6056,"aras":6057,"keh":6058,"kedamaian":6059,"asuran":6060,"adver":6061,"organ":6062,"esha":6063,"pergud":6064,"pakel":6065,"pana":6066,"seaf":6067,"loan":6068,"logam":6069,"masyar":6070,"gap":6071,"gagak":6072,"wac":6073,"blu":6074,"door":6075,"17113":6076,"peuk":6077,"kalianda":6078,"muhaji":6079,"mira":6080,"semar":6081,"homes":6082,"kantin":6083,"adip":6084,"kebonagung":6085,"samo":6086,"batuh":6087,"stem":6088,"udra":6089,"patrol":6090,"kebab":6091,"kertalangu":6092,"nilam":6093,"sampangan":6094,"ganet":6095,"fau":6096,"klok":6097,"pasirlayung":6098,"dinar":6099,"kedungmundu":6100,"lempu":6101,"watang":6102,"singaparna":6103,"rangga":6104,"perikanan":6105,"mojop":6106,"75243":6107,"40286":6108,"afr":6109,"arcadia":6110,"cokroami":6111,"kanigoro":6112,"sosro":6113,"cream":6114,"prepedan":6115,"simalanggang":6116,"74874":6117,"nyamplungan":6118,"asuransi":6119,"017":6120,"524":6121,"cli":6122,"cand":6123,"e3":6124,"ei":6125,"iwan":6126,"kt":6127,"pj":6128,"sc":6129,"zul":6130,"nging":6131,"amar":6132,"kesugihan":6133,"ciwaringin":6134,"suwa":6135,"susun":6136,"jabar":6137,"eme":6138,"riung":6139,"kary":6140,"pawan":6141,"11b":6142,"ukur":6143,"labora":6144,"ampu":6145,"hair":6146,"bida":6147,"soli":6148,"pupuk":6149,"mexi":6150,"raharja":6151,"lex":6152,"purwa":6153,"kano":6154,"bundaran":6155,"meranti":6156,"danure":6157,"geu":6158,"557":6159,"kpp":6160,"kunir":6161,"jepun":6162,"atap":6163,"klung":6164,"pasirkaliki":6165,"ther":6166,"dahu":6167,"pegirian":6168,"trop":6169,"sast":6170,"nanga":6171,"clea":6172,"16451":6173,"restoran":6174,"langensari":6175,"gerogol":6176,"danurejan":6177,"clin":6178,"mum":6179,"opo":6180,"rd":6181,"stic":6182,"tad":6183,"tsana":6184,"yuli":6185,"ratan":6186,"ambulu":6187,"asak":6188,"eneng":6189,"cipare":6190,"tiram":6191,"rimbo":6192,"rw03":6193,"masakan":6194,"ree":6195,"15122":6196,"17144":6197,"kaliju":6198,"muis":6199,"jiwa":6200,"andan":6201,"gadog":6202,"kima":6203,"palapa":6204,"pilar":6205,"denan":6206,"sambas":6207,"sambutan":6208,"samudra":6209,"rud":6210,"263":6211,"mahkota":6212,"puspan":6213,"khu":6214,"kaluku":6215,"langsa":6216,"kunci":6217,"che":6218,"chen":6219,"mojoagung":6220,"684":6221,"11510":6222,"13220":6223,"13910":6224,"dengklok":6225,"ngadirejo":6226,"techno":6227,"gintung":6228,"sertajaya":6229,"kalijudan":6230,"811":6231,"dara":6232,"damp":6233,"fati":6234,"rb":6235,"tgh":6236,"assa":6237,"asoka":6238,"cikut":6239,"bubu":6240,"ulrejo":6241,"rw04":6242,"sip":6243,"pertama":6244,"baik":6245,"roxy":6246,"gaya":6247,"sopo":6248,"pebay":6249,"kalijaga":6250,"agu":6251,"wila":6252,"jil":6253,"mark":6254,"karangbesuki":6255,"mir":6256,"tualang":6257,"sermo":6258,"tanjunganom":6259,"peni":6260,"matsum":6261,"rejowinangun":6262,"409":6263,"237":6264,"254":6265,"gall":6266,"kradenan":6267,"kutai":6268,"tempat":6269,"bumiaji":6270,"nisa":6271,"derwati":6272,"geran":6273,"kramatwatu":6274,"cangkri":6275,"fika":6276,"banyuasin":6277,"koneng":6278,"nagasari":6279,"tonja":6280,"17520":6281,"kangkung":6282,"12240":6283,"sekarbela":6284,"12310":6285,"rengasdengklok":6286,"kadipiro":6287,"tasikm":6288,"plumbon":6289,"panorama":6290,"kristen":6291,"court":6292,"kempek":6293,"landungsari":6294,"cihapit":6295,"muhajirin":6296,"ngingas":6297,"cikutra":6298,"bm":6299,"djo":6300,"fad":6301,"greg":6302,"jala":6303,"neng":6304,"oyo":6305,"qo":6306,"zan":6307,"arti":6308,"cial":6309,"ciwid":6310,"eli":6311,"tip":6312,"suprapto":6313,"adit":6314,"ulan":6315,"uncen":6316,"majid":6317,"bagu":6318,"bongan":6319,"lod":6320,"lobby":6321,"tokopi":6322,"blah":6323,"aip":6324,"meno":6325,"tujuh":6326,"lear":6327,"bee":6328,"muly":6329,"comal":6330,"cipat":6331,"kui":6332,"penatih":6333,"bunulrejo":6334,"bestari":6335,"sidosermo":6336,"cinun":6337,"jagak":6338,"langon":6339,"kutabumi":6340,"ulangin":6341,"pedalangan":6342,"mayang":6343,"bahari":6344,"fotokopi":6345,"contong":6346,"rmh":6347,"cibuluh":6348,"helm":6349,"cilik":6350,"90231":6351,"rizal":6352,"tawangsari":6353,"rafl":6354,"tanggulangin":6355,"kiriman":6356,"gyp":6357,"cleaning":6358,"variasi":6359,"palebon":6360,"cemerlang":6361,"lulut":6362,"kwitang":6363,"katamso":6364,"cokroaminoto":6365,"mexicano":6366,"6b":6367,"kini":6368,"rini":6369,"upa":6370,"yen":6371,"all":6372,"kese":6373,"elo":6374,"tian":6375,"kodam":6376,"bulo":6377,"bubulak":6378,"simat":6379,"dist":6380,"josari":6381,"saya":6382,"alit":6383,"alian":6384,"etno":6385,"sewa":6386,"seblak":6387,"ampung":6388,"idola":6389,"blon":6390,"pej":6391,"baka":6392,"andalas":6393,"adil":6394,"samban":6395,"komputer":6396,"alayan":6397,"bensin":6398,"patri":6399,"sentani":6400,"353":6401,"santi":6402,"progo":6403,"prem":6404,"airport":6405,"mayjen":6406,"pahit":6407,"rambe":6408,"setel":6409,"ilham":6410,"iringan":6411,"indralaya":6412,"krendang":6413,"pakuan":6414,"latinos":6415,"syaf":6416,"rambah":6417,"sandujaya":6418,"polisi":6419,"rancamanyar":6420,"krapyak":6421,"ciwidey":6422,"cinunuk":6423,"d4":6424,"kuku":6425,"nadi":6426,"srono":6427,"vina":6428,"kemas":6429,"kedur":6430,"rt002":6431,"rt003":6432,"ciantra":6433,"tiro":6434,"timbang":6435,"baron":6436,"peran":6437,"baj":6438,"selor":6439,"panya":6440,"bande":6441,"sebe":6442,"mass":6443,"biak":6444,"sof":6445,"dea":6446,"17125":6447,"17134":6448,"kalirejo":6449,"seriri":6450,"madani":6451,"hij":6452,"him":6453,"bekala":6454,"padangan":6455,"tori":6456,"rua":6457,"menc":6458,"saluyu":6459,"yaman":6460,"drs":6461,"pulopan":6462,"grogot":6463,"sukodadi":6464,"cipageran":6465,"trip":6466,"aura":6467,"571":6468,"562":6469,"rangkui":6470,"reni":6471,"fira":6472,"zain":6473,"kurung":6474,"palace":6475,"sindangbarang":6476,"13720":6477,"budhi":6478,"wiradesa":6479,"wedari":6480,"61257":6481,"ngurah":6482,"sirimau":6483,"16610":6484,"kraksaan":6485,"florist":6486,"gpdi":6487,"kesamben":6488,"hacienda":6489,"a8":6490,"aj":6491,"b9":6492,"dram":6493,"fm":6494,"iwa":6495,"lk":6496,"lara":6497,"lari":6498,"nin":6499,"nata":6500,"oc":6501,"porong":6502,"toran":6503,"wling":6504,"annur":6505,"radi":6506,"aso":6507,"ciwa":6508,"akad":6509,"akmur":6510,"baring":6511,"kaba":6512,"rw05":6513,"toserba":6514,"perto":6515,"bayong":6516,"rojo":6517,"pasur":6518,"big":6519,"age":6520,"mimi":6521,"amaya":6522,"holis":6523,"kandi":6524,"pangr":6525,"padma":6526,"merjosari":6527,"putro":6528,"lamasi":6529,"284":6530,"274":6531,"sidoharjo":6532,"lina":6533,"kertosono":6534,"gampong":6535,"jakabaring":6536,"tunj":6537,"78244":6538,"15415":6539,"17414":6540,"palais":6541,"wido":6542,"widy":6543,"husni":6544,"wanajaya":6545,"mtss":6546,"cikoko":6547,"randuagung":6548,"tentara":6549,"pitu":6550,"leuwigajah":6551,"eungpeuk":6552,"hegarmanah":6553,"belitang":6554,"slb":6555,"waluya":6556,"rambipuji":6557,"cilengkrang":6558,"kujangsari":6559,"chrysant":6560,"pulopancikan":6561,"018":6562,"ae":6563,"eun":6564,"g2":6565,"hali":6566,"hend":6567,"nad":6568,"takan":6569,"anik":6570,"alba":6571,"insi":6572,"suti":6573,"buay":6574,"jab":6575,"riat":6576,"kaya":6577,"toyo":6578,"mawi":6579,"diva":6580,"perkebun":6581,"perdag":6582,"egi":6583,"alia":6584,"14250":6585,"dera":6586,"pejag":6587,"agul":6588,"kusu":6589,"belah":6590,"406":6591,"pattun":6592,"000":6593,"291":6594,"arjosari":6595,"laksana":6596,"12620":6597,"transport":6598,"pakuwon":6599,"sendjaja":6600,"14360":6601,"leles":6602,"kumbang":6603,"kadir":6604,"sayati":6605,"olong":6606,"lemahabang":6607,"sidim":6608,"fitn":6609,"tokusuman":6610,"kotaraja":6611,"mukh":6612,"black":6613,"gondomanan":6614,"selebar":6615,"brontokusuman":6616,"halaban":6617,"klungkung":6618,"kedurus":6619,"perkebunan":6620,"pattunuang":6621,"1d":6622,"312":6623,"b8":6624,"bru":6625,"dor":6626,"dre":6627,"fran":6628,"h2":6629,"heri":6630,"kk":6631,"pid":6632,"rina":6633,"uruh":6634,"cido":6635,"cimuncang":6636,"emer":6637,"taj":6638,"under":6639,"kelayan":6640,"toi":6641,"sirua":6642,"panin":6643,"panarung":6644,"secur":6645,"bangsri":6646,"gau":6647,"14130":6648,"south":6649,"17131":6650,"yudha":6651,"karangjati":6652,"seruni":6653,"beran":6654,"berdi":6655,"pakusari":6656,"nay":6657,"rante":6658,"cilem":6659,"kenangan":6660,"kendang":6661,"23a":6662,"sumbang":6663,"ikale":6664,"tangsel":6665,"gerai":6666,"mangasa":6667,"gentan":6668,"tambakaji":6669,"muncar":6670,"bambang":6671,"pekiringan":6672,"place":6673,"labuan":6674,"gilim":6675,"sye":6676,"turikale":6677,"affa":6678,"14230":6679,"mangunharjo":6680,"phy":6681,"boyolangu":6682,"western":6683,"narogong":6684,"khai":6685,"chai":6686,"dewantara":6687,"futsal":6688,"electronic":6689,"sidokumpul":6690,"muttaqin":6691,"336":6692,"craf":6693,"gend":6694,"pdam":6695,"uka":6696,"asur":6697,"nor":6698,"ciw":6699,"buy":6700,"tabing":6701,"tawes":6702,"engine":6703,"panim":6704,"bana":6705,"bani":6706,"sariharjo":6707,"pop":6708,"lodan":6709,"14140":6710,"mugas":6711,"tamanan":6712,"andang":6713,"rahma":6714,"kip":6715,"vir":6716,"belendung":6717,"cemara":6718,"salo":6719,"266":6720,"nipah":6721,"sartika":6722,"333":6723,"warudoyong":6724,"nasir":6725,"pasirkuda":6726,"sumberrejo":6727,"seku":6728,"kursus":6729,"gandrung":6730,"curugmekar":6731,"11820":6732,"12210":6733,"borang":6734,"ngupasan":6735,"kembangarum":6736,"saidi":6737,"namo":6738,"mutt":6739,"tataan":6740,"tunjungsekar":6741,"hidayatul":6742,"cagak":6743,"stand":6744,"harmoni":6745,"pataruman":6746,"selapajang":6747,"diningratan":6748,"riattang":6749,"sidimpuan":6750,"kendangsari":6751,"432":6752,"a9":6753,"afi":6754,"balam":6755,"c4":6756,"hum":6757,"jnt":6758,"rab":6759,"radar":6760,"atul":6761,"amil":6762,"alla":6763,"aluh":6764,"along":6765,"altern":6766,"yasin":6767,"kepah":6768,"asuhan":6769,"urang":6770,"ink":6771,"citamiang":6772,"cimanggung":6773,"adon":6774,"bulian":6775,"rikan":6776,"rw06":6777,"majenang":6778,"sib":6779,"murung":6780,"tambal":6781,"safir":6782,"lie":6783,"lion":6784,"asila":6785,"sepeda":6786,"bango":6787,"wars":6788,"pupu":6789,"karangasih":6790,"bergas":6791,"harj":6792,"kiai":6793,"tanjungpura":6794,"pimp":6795,"penuh":6796,"naw":6797,"rukem":6798,"telor":6799,"kecu":6800,"248":6801,"bungi":6802,"temu":6803,"banjarejo":6804,"45a":6805,"beton":6806,"60128":6807,"suran":6808,"sareal":6809,"jeans":6810,"pengu":6811,"pancasila":6812,"bandungrejosari":6813,"yahya":6814,"metes":6815,"mont":6816,"abdullah":6817,"hasanuddin":6818,"sindangkasih":6819,"unyur":6820,"azh":6821,"wulung":6822,"quro":6823,"gudeg":6824,"aisy":6825,"mejasem":6826,"gerunggang":6827,"keroncong":6828,"pamanukan":6829,"clinic":6830,"puspanegara":6831,"512":6832,"dc":6833,"kate":6834,"muta":6835,"nama":6836,"tulang":6837,"tlp":6838,"ubi":6839,"amun":6840,"nok":6841,"novi":6842,"cingan":6843,"tive":6844,"adine":6845,"uteran":6846,"riwut":6847,"siu":6848,"sialang":6849,"saga":6850,"box":6851,"boy":6852,"roo":6853,"manik":6854,"mansy":6855,"ward":6856,"habi":6857,"15151":6858,"17b":6859,"pecung":6860,"kalimulya":6861,"tering":6862,"teb":6863,"teung":6864,"seribu":6865,"gio":6866,"berkat":6867,"pipit":6868,"balok":6869,"galang":6870,"padangsidimpuan":6871,"cipag":6872,"dukun":6873,"ganesha":6874,"65126":6875,"srijaya":6876,"tanjakan":6877,"mojolaban":6878,"kayen":6879,"cimahpar":6880,"13430":6881,"12430":6882,"rancabolang":6883,"10650":6884,"wedd":6885,"wedding":6886,"16340":6887,"baturetno":6888,"panggungharjo":6889,"radj":6890,"situsa":6891,"ciriung":6892,"monginsidi":6893,"konveksi":6894,"acacia":6895,"situsaeur":6896,"dj":6897,"f3":6898,"oi":6899,"oso":6900,"pama":6901,"sangg":6902,"alon":6903,"yaqin":6904,"enang":6905,"cibung":6906,"cigon":6907,"ciluar":6908,"persatuan":6909,"umbak":6910,"lily":6911,"bolo":6912,"roso":6913,"roud":6914,"seputih":6915,"mong":6916,"poncol":6917,"pasanggrahan":6918,"gaj":6919,"idin":6920,"wajak":6921,"soko":6922,"puger":6923,"dewah":6924,"17112":6925,"mejayan":6926,"besusu":6927,"paru":6928,"pangla":6929,"22a":6930,"25a":6931,"245":6932,"21a":6933,"tegallalang":6934,"trade":6935,"burl":6936,"355":6937,"taruna":6938,"293":6939,"jata":6940,"sarua":6941,"setiabudi":6942,"kleg":6943,"linggo":6944,"petarukan":6945,"hatul":6946,"brawijaya":6947,"inapan":6948,"gemolong":6949,"sumurpecung":6950,"pariwisata":6951,"marihat":6952,"13410":6953,"13440":6954,"soep":6955,"aziz":6956,"bisma":6957,"latum":6958,"interi":6959,"kirana":6960,"...":6961,"jagabaya":6962,"ibnu":6963,"muhammad":6964,"barabai":6965,"16454":6966,"17610":6967,"money":6968,"pleburan":6969,"distribu":6970,"nunukan":6971,"abepura":6972,"babura":6973,"craft":6974,"meteseh":6975,"cigondewah":6976,"',":6977,"345":6978,"abung":6979,"dm":6980,"dja":6981,"drup":6982,"fon":6983,"kasri":6984,"syuh":6985,"anget":6986,"intang":6987,"inata":6988,"ahm":6989,"ciger":6990,"cikalong":6991,"sumi":6992,"jabon":6993,"baraya":6994,"ario":6995,"kapi":6996,"max":6997,"perkan":6998,"lit":6999,"lag":7000,"manti":7001,"jatireja":7002,"agi":7003,"mik":7004,"021":7005,"merpati":7006,"jambon":7007,"258":7008,"patumbak":7009,"abri":7010,"tangga":7011,"262":7012,"pameungpeuk":7013,"khari":7014,"33a":7015,"penginapan":7016,"klp":7017,"kland":7018,"65153":7019,"teratai":7020,"hubungi":7021,"kripik":7022,"cyber":7023,"shin":7024,"15413":7025,"75242":7026,"klipang":7027,"prambon":7028,"smks":7029,"manyaran":7030,"beduk":7031,"donoharjo":7032,"sragi":7033,"citayam":7034,"swalayan":7035,"kabanjahe":7036,"panglayungan":7037,"bg":7038,"dum":7039,"eco":7040,"ipik":7041,"kaki":7042,"nasari":7043,"rul":7044,"ambe":7045,"yadi":7046,"key":7047,"rt07":7048,"cidahu":7049,"suw":7050,"tomohon":7051,"sima":7052,"sibo":7053,"umpu":7054,"babus":7055,"eki":7056,"tamba":7057,"sablon":7058,"12260":7059,"mant":7060,"manna":7061,"poeng":7062,"15114":7063,"bia":7064,"golo":7065,"batin":7066,"kaliw":7067,"karangsari":7068,"teran":7069,"sempu":7070,"partemen":7071,"parkir":7072,"duy":7073,"pangkajen":7074,"tanjungrejo":7075,"piyungan":7076,"belang":7077,"30a":7078,"merbau":7079,"tegallega":7080,"pusdik":7081,"kuli":7082,"pasiran":7083,"kambu":7084,"rawat":7085,"faq":7086,"saki":7087,"pina":7088,"dahlan":7089,"gandu":7090,"krob":7091,"sedayu":7092,"11620":7093,"nageri":7094,"tanimulya":7095,"17421":7096,"11850":7097,"ketawang":7098,"soetomo":7099,"smkn":7100,"94111":7101,"praktek":7102,"klampok":7103,"world":7104,"bagian":7105,"karunia":7106,"guntungmanggis":7107,"sampora":7108,"style":7109,"homestay":7110,"setelah":7111,"cigereleng":7112,"pangkajene":7113,"5c":7114,"ayah":7115,"d8":7116,"e4":7117,"f4":7118,"kfc":7119,"mg":7120,"anj":7121,"ansa":7122,"ketan":7123,"kebe":7124,"info":7125,"cigen":7126,"ciumbu":7127,"orc":7128,"iia":7129,"kawali":7130,"kare":7131,"diana":7132,"body":7133,"alis":7134,"mandai":7135,"banggi":7136,"pasari":7137,"paseh":7138,"gomb":7139,"soma":7140,"17147":7141,"mard":7142,"maron":7143,"tero":7144,"mino":7145,"serma":7146,"hibr":7147,"parah":7148,"palur":7149,"bundo":7150,"telur":7151,"300":7152,"prigen":7153,"musa":7154,"bungkul":7155,"best":7156,"sdm":7157,"malangan":7158,"pelai":7159,"456":7160,"sidos":7161,"suru":7162,"55581":7163,"saren":7164,"kampoeng":7165,"klakah":7166,"bril":7167,"srikandi":7168,"ramli":7169,"plao":7170,"yangkara":7171,"sukaramai":7172,"leces":7173,"ringo":7174,"11630":7175,"sengon":7176,"tirtajaya":7177,"12520":7178,"cermin":7179,"pacul":7180,"servis":7181,"nambangan":7182,"pompa":7183,"gempolsari":7184,"pattimura":7185,"wolter":7186,"kitchen":7187,"handap":7188,"vista":7189,"ciroyom":7190,"pemakaman":7191,"polewali":7192,"langgeng":7193,"kotamo":7194,"pergudangan":7195,"bayongbong":7196,"interior":7197,"220":7198,"323":7199,"cro":7200,"dasa":7201,"ful":7202,"fari":7203,"glor":7204,"ino":7205,"js":7206,"jasi":7207,"mek":7208,"uke":7209,"ngronggo":7210,"amb":7211,"ampo":7212,"rt1":7213,"susi":7214,"buli":7215,"topa":7216,"paket":7217,"babar":7218,"11470":7219,"sariwangi":7220,"isola":7221,"molo":7222,"mode":7223,"jatihandap":7224,"batusari":7225,"tengen":7226,"kalicari":7227,"agari":7228,"mug":7229,"jiwan":7230,"terban":7231,"bermain":7232,"lusi":7233,"picung":7234,"cabalu":7235,"sambung":7236,"jaran":7237,"30111":7238,"dano":7239,"wangun":7240,"wangsa":7241,"24a":7242,"tenda":7243,"gera":7244,"454":7245,"betet":7246,"60129":7247,"5559":7248,"grama":7249,"tritih":7250,"372":7251,"sinjai":7252,"31a":7253,"pasirgombong":7254,"sumberejo":7255,"381":7256,"570":7257,"sambirejo":7258,"jaksel":7259,"sutr":7260,"dulan":7261,"sangkal":7262,"purwasari":7263,"16417":7264,"mariana":7265,"sindangsari":7266,"14410":7267,"komis":7268,"azhar":7269,"wedoro":7270,"15710":7271,"photogra":7272,"setiamanah":7273,"galaxy":7274,"ciseeng":7275,"cikiwul":7276,"raudh":7277,"uptd":7278,"fakul":7279,"country":7280,"pemancingan":7281,"dawuhan":7282,"kejuron":7283,"karadenan":7284,"tasikmalaya":7285,"cipatat":7286,"seririt":7287,"mansyur":7288,"krobokan":7289,"422":7290,"auri":7291,"bmt":7292,"char":7293,"e5":7294,"fun":7295,"khar":7296,"tina":7297,"yum":7298,"angkat":7299,"keagung":7300,"no1":7301,"erla":7302,"rt06":7303,"cimekar":7304,"timah":7305,"suz":7306,"busin":7307,"pago":7308,"pabat":7309,"panam":7310,"panjai":7311,"alif":7312,"iswah":7313,"bibis":7314,"sosis":7315,"debong":7316,"kalianget":7317,"muf":7318,"terbanggi":7319,"leb":7320,"beu":7321,"kemala":7322,"sukas":7323,"palasari":7324,"rusuna":7325,"kent":7326,"jupi":7327,"merisi":7328,"priyo":7329,"stone":7330,"257":7331,"lancar":7332,"pelo":7333,"287":7334,"tratap":7335,"tarbi":7336,"60118":7337,"296":7338,"29a":7339,"nib":7340,"365":7341,"331":7342,"sawitto":7343,"gerb":7344,"delanggu":7345,"pink":7346,"pekunden":7347,"rengat":7348,"renang":7349,"gajahmungkur":7350,"80117":7351,"60285":7352,"nongsa":7353,"kayum":7354,"lege":7355,"16411":7356,"indrapura":7357,"potro":7358,"sawotratap":7359,"13940":7360,"nyeng":7361,"kelompok":7362,"mm2100":7363,"imogiri":7364,"macc":7365,"martadinata":7366,"palimanan":7367,"ciparigi":7368,"cijujung":7369,"fachr":7370,"perancis":7371,"security":7372,"fakultas":7373,"keagungan":7374,"pabaton":7375,"rusunawa":7376,"322":7377,"cation":7378,"candra":7379,"dw":7380,"eu":7381,"fra":7382,"fair":7383,"omartani":7384,"phi":7385,"pru":7386,"rukan":7387,"zz":7388,"areng":7389,"ngam":7390,"ngampel":7391,"kepi":7392,"keua":7393,"inko":7394,"tile":7395,"koh":7396,"adv":7397,"karyam":7398,"mapan":7399,"side":7400,"pertoko":7401,"murti":7402,"tamp":7403,"bancar":7404,"dap":7405,"mojok":7406,"hai":7407,"13a":7408,"departemen":7409,"dokan":7410,"muji":7411,"mili":7412,"meda":7413,"giant":7414,"besuk":7415,"seme":7416,"semara":7417,"mula":7418,"harma":7419,"paron":7420,"paropo":7421,"kisa":7422,"gurah":7423,"cau":7424,"bunut":7425,"kencong":7426,"binanga":7427,"407":7428,"249":7429,"temp":7430,"kertan":7431,"kerten":7432,"275":7433,"tarok":7434,"343":7435,"residences":7436,"80119":7437,"kaso":7438,"kast":7439,"nani":7440,"ulee":7441,"15417":7442,"tungkal":7443,"12540":7444,"mengger":7445,"vape":7446,"cilil":7447,"14460":7448,"nuansa":7449,"ajibarang":7450,"wedomartani":7451,"beda":7452,"corner":7453,"baiturr":7454,"61151":7455,"drajat":7456,"sidokare":7457,"ibtidaiyah":7458,"tulusrejo":7459,"plered":7460,"pleret":7461,"tessa":7462,"ctory":7463,"wlingi":7464,"amuntai":7465,"pertokoan":7466,"532":7467,"caman":7468,"drono":7469,"jali":7470,"ksu":7471,"lasem":7472,"pangg":7473,"sali":7474,"tm":7475,"yara":7476,"inn":7477,"suji":7478,"siro":7479,"perhu":7480,"tanahan":7481,"bagor":7482,"tami":7483,"egaran":7484,"bolinggo":7485,"bando":7486,"bandu":7487,"mandong":7488,"sepu":7489,"loe":7490,"sound":7491,"tengnga":7492,"17121":7493,"bakri":7494,"mei":7495,"muba":7496,"marbella":7497,"mede":7498,"gita":7499,"pakunden":7500,"hias":7501,"tanjungpinang":7502,"palas":7503,"rano":7504,"pemer":7505,"dungus":7506,"cele":7507,"hanyar":7508,"276":7509,"beth":7510,"mintara":7511,"295":7512,"kamul":7513,"37a":7514,"32a":7515,"sintang":7516,"mulyaharja":7517,"sakra":7518,"382":7519,"remaja":7520,"gate":7521,"sekampung":7522,"suryadarma":7523,"kersan":7524,"64129":7525,"sumurboto":7526,"cupu":7527,"parik":7528,"16436":7529,"katulam":7530,"12220":7531,"13810":7532,"14440":7533,"laten":7534,"segala":7535,"industrial":7536,"16320":7537,"abim":7538,"karimun":7539,"makamhaji":7540,"kasim":7541,"fatmawati":7542,"malabar":7543,"16452":7544,"grha":7545,"masigit":7546,"kepuhkiriman":7547,"dkt":7548,"layur":7549,"raudhatul":7550,"bagik":7551,"orange":7552,"nogotirto":7553,"panibungan":7554,"ketug":7555,"perkantoran":7556,"kharisma":7557,"klandasan":7558,"pelaihari":7559,"panjaitan":7560,"mandonga":7561,"mintaragen":7562,"katulampa":7563,"a10":7564,"ayang":7565,"cumi":7566,"d6":7567,"gbi":7568,"kasem":7569,"mla":7570,"nuh":7571,"spo":7572,"ture":7573,"wala":7574,"ngal":7575,"kesad":7576,"asm":7577,"asep":7578,"north":7579,"urung":7580,"rt2":7581,"rt3":7582,"ciakar":7583,"bust":7584,"take":7585,"kapura":7586,"tog":7587,"sikarah":7588,"diy":7589,"perba":7590,"perik":7591,"egong":7592,"liv":7593,"bandulan":7594,"lapak":7595,"etas":7596,"lou":7597,"repu":7598,"jatirangga":7599,"godong":7600,"17115":7601,"17158":7602,"wig":7603,"marto":7604,"karangpandan":7605,"tup":7606,"giwangan":7607,"duwur":7608,"penida":7609,"penarukan":7610,"ceker":7611,"goron":7612,"sukawarna":7613,"303":7614,"bukal":7615,"bintoro":7616,"28a":7617,"grafika":7618,"atau":7619,"chin":7620,"hasa":7621,"373":7622,"ganting":7623,"sumberpucung":7624,"jembrana":7625,"badung":7626,"kertosari":7627,"mail":7628,"gatak":7629,"cileu":7630,"60232":7631,"kasin":7632,"tondano":7633,"metropo":7634,"lont":7635,"cikao":7636,"husen":7637,"sastran":7638,"birugo":7639,"majapahit":7640,"bulusan":7641,"rusdi":7642,"sendangadi":7643,"steel":7644,"tutul":7645,"kemirimuka":7646,"argapura":7647,"praktik":7648,"aqi":7649,"talago":7650,"ladang":7651,"sorosutan":7652,"parfume":7653,"rampal":7654,"design":7655,"distro":7656,"kotamobagu":7657,"business":7658,"kamulyan":7659,"2d":7660,"7c":7661,"c9":7662,"cri":7663,"fes":7664,"langgar":7665,"mkn":7666,"ota":7667,"sru":7668,"sby":7669,"ts":7670,"wh":7671,"wok":7672,"yuk":7673,"zone":7674,"erna":7675,"enc":7676,"ene":7677,"ungjing":7678,"tiang":7679,"onl":7680,"rio":7681,"untang":7682,"kain":7683,"kawalu":7684,"tob":7685,"karasak":7686,"disi":7687,"sayu":7688,"manahan":7689,"secang":7690,"bangga":7691,"itu":7692,"iten":7693,"warm":7694,"warman":7695,"idris":7696,"metik":7697,"wika":7698,"margal":7699,"seret":7700,"yoga":7701,"berm":7702,"kemuteran":7703,"lucky":7704,"gaden":7705,"sukakarya":7706,"nab":7707,"buncit":7708,"rudi":7709,"301":7710,"negoro":7711,"juwi":7712,"juwana":7713,"cemani":7714,"galeri":7715,"sumbera":7716,"247":7717,"abc":7718,"manglia":7719,"354":7720,"272":7721,"60119":7722,"364":7723,"chandra":7724,"prodia":7725,"dela":7726,"pega":7727,"gema":7728,"kusen":7729,"15419":7730,"curah":7731,"cks":7732,"11540":7733,"mushalla":7734,"bendul":7735,"husin":7736,"wahidin":7737,"13930":7738,"tarik":7739,"pagutan":7740,"ukiki":7741,"merauke":7742,"wuluh":7743,"swasem":7744,"weleri":7745,"cijeungjing":7746,"jingah":7747,"hybr":7748,"pekapuran":7749,"rezeki":7750,"bacukiki":7751,"sukaraya":7752,"proklamasi":7753,"fikri":7754,"selicin":7755,"avenue":7756,"april":7757,"jatake":7758,"mangliawan":7759,"??":7760,"av":7761,"c10":7762,"fin":7763,"ffa":7764,"glen":7765,"hurip":7766,"jangan":7767,"kko":7768,"linda":7769,"tete":7770,"ws":7771,"windu":7772,"arra":7773,"nglegok":7774,"amon":7775,"alumi":7776,"ahass":7777,"ele":7778,"suba":7779,"suku":7780,"jau":7781,"oki":7782,"tongan":7783,"mabes":7784,"joe":7785,"book":7786,"bansir":7787,"10b":7788,"10250":7789,"lolu":7790,"ampang":7791,"15141":7792,"gaul":7793,"doko":7794,"kalik":7795,"kalipuro":7796,"wiyah":7797,"karangpucung":7798,"midi":7799,"gisik":7800,"pidie":7801,"sunset":7802,"stm":7803,"stat":7804,"stadi":7805,"galo":7806,"udang":7807,"wonodri":7808,"putu":7809,"tendean":7810,"pelutan":7811,"285":7812,"pulogadung":7813,"mangkang":7814,"kuliner":7815,"suren":7816,"balikp":7817,"334":7818,"graf":7819,"pengant":7820,"kamba":7821,"rawak":7822,"patih":7823,"pelayanan":7824,"60293":7825,"ilyas":7826,"ketanggungan":7827,"meter":7828,"talag":7829,"78113":7830,"amidi":7831,"erate":7832,"tond":7833,"40287":7834,"kadung":7835,"mungkid":7836,"sega":7837,"cipeu":7838,"sugihwaras":7839,"15226":7840,"sukaharja":7841,"kelingan":7842,"telajung":7843,"alfamidi":7844,"riyadi":7845,"karanggetas":7846,"dompu":7847,"tlajung":7848,"mider":7849,"situterate":7850,"pjka":7851,"pusdikzi":7852,"nyengseret":7853,"semarapura":7854,"240":7855,"533":7856,"c8":7857,"g3":7858,"gru":7859,"h1":7860,"oa":7861,"opi":7862,"tc":7863,"tangan":7864,"atun":7865,"sucipto":7866,"adeg":7867,"adarma":7868,"aragung":7869,"tagi":7870,"tos":7871,"tobo":7872,"mabar":7873,"simb":7874,"pait":7875,"pagaden":7876,"panemb":7877,"banua":7878,"manon":7879,"baruga":7880,"13470":7881,"gawan":7882,"gowo":7883,"16b":7884,"pekelingan":7885,"mean":7886,"meja":7887,"jungan":7888,"tejak":7889,"purus":7890,"2000":7891,"sematang":7892,"duwet":7893,"vika":7894,"kudu":7895,"dental":7896,"balau":7897,"batujaya":7898,"musya":7899,"selajambe":7900,"tegar":7901,"tenis":7902,"puspasari":7903,"35a":7904,"caka":7905,"452":7906,"hano":7907,"bukittinggi":7908,"suri":7909,"embah":7910,"558":7911,"bulukum":7912,"cantik":7913,"nasion":7914,"pancuran":7915,"cipaganti":7916,"kambang":7917,"trisakti":7918,"petak":7919,"muni":7920,"lembu":7921,"461":7922,"rambat":7923,"jani":7924,"singaraja":7925,"gaten":7926,"ltd":7927,"banyuraden":7928,"ols":7929,"labuapi":7930,"llah":7931,"maritengnga":7932,"limbungan":7933,"parangt":7934,"leuwin":7935,"ceret":7936,"12810":7937,"venus":7938,"16920":7939,"angkatan":7940,"randugunting":7941,"kilangan":7942,"dyn":7943,"ngampilan":7944,"insti":7945,"handayani":7946,"outlet":7947,"anoa":7948,"hasil":7949,"menengah":7950,"logistik":7951,"kautsar":7952,"dampit":7953,"panyabungan":7954,"tejakula":7955,"maritengngae":7956,"835":7957,"836":7958,"dus":7959,"dama":7960,"f6":7961,"fro":7962,"glad":7963,"hul":7964,"nara":7965,"plem":7966,"plamo":7967,"tji":7968,"tle":7969,"uban":7970,"wangg":7971,"rami":7972,"alus":7973,"keke":7974,"inting":7975,"ungasan":7976,"cimar":7977,"ciujung":7978,"cicurug":7979,"cigas":7980,"cijayanti":7981,"akasia":7982,"surak":7983,"buka":7984,"jae":7985,"orok":7986,"rit":7987,"umban":7988,"ussalam":7989,"10130":7990,"rosa":7991,"royong":7992,"manok":7993,"bangli":7994,"barurambat":7995,"master":7996,"masaran":7997,"jatij":7998,"solear":7999,"17133":8000,"kalim":8001,"anggik":8002,"ters":8003,"ptek":8004,"tuti":8005,"hope":8006,"luyu":8007,"adilan":8008,"rani":8009,"ruby":8010,"cilamaya":8011,"rejomulyo":8012,"galon":8013,"sumsel":8014,"wonodadi":8015,"ikat":8016,"pesawahan":8017,"senj":8018,"buru":8019,"sukorame":8020,"kulit":8021,"29444":8022,"niti":8023,"santa":8024,"grage":8025,"penggil":8026,"derm":8027,"370":8028,"lettu":8029,"577":8030,"munir":8031,"dongkal":8032,"fic":8033,"patim":8034,"four":8035,"bilal":8036,"kolaka":8037,"78243":8038,"manisrejo":8039,"sadd":8040,"system":8041,"13840":8042,"halal":8043,"cikajang":8044,"sindangrasa":8045,"timbul":8046,"12790":8047,"leuit":8048,"parungkuda":8049,"darmawan":8050,"john":8051,"keramat":8052,"campur":8053,"panggungrejo":8054,"cisoka":8055,"welahan":8056,"lompo":8057,"silver":8058,"tehnik":8059,"maospati":8060,"panying":8061,"dolopo":8062,"production":8063,"40375":8064,"ciwaruga":8065,"aquari":8066,"61177":8067,"bjb":8068,"aipda":8069,"pejanggik":8070,"dream":8071,"syech":8072,"teungoh":8073,"cibungbulang":8074,"ciumbuleuit":8075,"karyamulya":8076,"gisikdrono":8077,"stadion":8078,"rawakalong":8079,"cigasong":8080,"e6":8081,"jeg":8082,"jkt":8083,"kres":8084,"lung":8085,"qad":8086,"roni":8087,"rsud":8088,"sb":8089,"ann":8090,"anna":8091,"ambawang":8092,"aspol":8093,"ciru":8094,"cisuru":8095,"time":8096,"buh":8097,"bula":8098,"bugi":8099,"barus":8100,"tabr":8101,"rw002":8102,"baciro":8103,"panunggal":8104,"sagu":8105,"limb":8106,"lae":8107,"pola":8108,"loun":8109,"logi":8110,"motik":8111,"warni":8112,"15144":8113,"wija":8114,"muhi":8115,"iiia":8116,"rahu":8117,"seru":8118,"berbah":8119,"haru":8120,"hol":8121,"coco":8122,"kiloan":8123,"kusir":8124,"adira":8125,"nauli":8126,"tangsi":8127,"283":8128,"gold":8129,"sentral":8130,"loren":8131,"sukomoro":8132,"akaya":8133,"jateng":8134,"kalapa":8135,"sardonoharjo":8136,"langkapura":8137,"kamang":8138,"trid":8139,"genah":8140,"wisnu":8141,"badar":8142,"kelua":8143,"564":8144,"tirton":8145,"pelay":8146,"kurdi":8147,"gandamekar":8148,"ombak":8149,"kricak":8150,"metal":8151,"simolawang":8152,"sukamenak":8153,"pangkah":8154,"bayat":8155,"40291":8156,"syeh":8157,"lly":8158,"ketawangg":8159,"12530":8160,"mentari":8161,"london":8162,"silikon":8163,"klip":8164,"12740":8165,"husna":8166,"jekulo":8167,"bpsdm":8168,"pandak":8169,"kumis":8170,"usahaan":8171,"randudongkal":8172,"rukam":8173,"alue":8174,"situbondo":8175,"mappala":8176,"donat":8177,"80237":8178,"tokaya":8179,"berastagi":8180,"aisyi":8181,"textile":8182,"getas":8183,"birobuli":8184,"laladon":8185,"penajam":8186,"tvri":8187,"education":8188,"nugr":8189,"cloth":8190,"madyopuro":8191,"perpustaka":8192,"tompokersan":8193,"cangkring":8194,"ocbc":8195,"distributor":8196,"photography":8197,"margaluyu":8198,",(":8199,"4c":8200,"a12":8201,"bn":8202,"ded":8203,"ebon":8204,"fadi":8205,"gm":8206,"gho":8207,"hbr":8208,"jari":8209,"lurus":8210,"nw":8211,"olan":8212,"rr":8213,"rindu":8214,"syu":8215,"tmp":8216,"wing":8217,"waka":8218,"zid":8219,"ngringo":8220,"ramay":8221,"ambal":8222,"ambiran":8223,"keju":8224,"intung":8225,"rt001":8226,"cibangkong":8227,"ady":8228,"adhy":8229,"taji":8230,"arie":8231,"mae":8232,"didi":8233,"joho":8234,"tand":8235,"sabang":8236,"bog":8237,"atif":8238,"asis":8239,"rot":8240,"power":8241,"ponco":8242,"15148":8243,"wao":8244,"wawan":8245,"bluru":8246,"gotong":8247,"16164":8248,"pejan":8249,"mile":8250,"leo":8251,"bejo":8252,"visi":8253,"guber":8254,"gedog":8255,"pira":8256,"pulai":8257,"sampai":8258,"danamon":8259,"stati":8260,"259":8261,"25173":8262,"tegin":8263,"abr":8264,"26a":8265,"senam":8266,"banjarnegoro":8267,"357":8268,"balige":8269,"kalin":8270,"rajapol":8271,"dame":8272,"574":8273,"pets":8274,"65141":8275,"pinan":8276,"basung":8277,"basah":8278,"werku":8279,"pegambiran":8280,"582":8281,"ketut":8282,"krida":8283,"urat":8284,"sukaratu":8285,"shel":8286,"coklat":8287,"11640":8288,"17415":8289,"btpn":8290,"lontong":8291,"12440":8292,"kreasi":8293,"rintis":8294,"taktakan":8295,"13210":8296,"junj":8297,"azi":8298,"61254":8299,"kemudo":8300,"wening":8301,"gondangrejo":8302,"haris":8303,"lerong":8304,"pukat":8305,"tarab":8306,"solokan":8307,"inspek":8308,"kitc":8309,"naim":8310,"text":8311,"enggungan":8312,"planet":8313,"dpc":8314,"peternakan":8315,"caffe":8316,"khusus":8317,"pebayuran":8318,"akademi":8319,"pasuruan":8320,"tajinan":8321,"faqih":8322,"mufti":8323,"manonjaya":8324,"genaharjo":8325,"ketawanggede":8326,"perpustakaan":8327,"1e":8328,"3d":8329,"8c":8330,"924":8331,"awan":8332,"aero":8333,"cum":8334,"cere":8335,"d7":8336,"ez":8337,"ging":8338,"idi":8339,"icon":8340,"jor":8341,"mli":8342,"pungg":8343,"sk":8344,"tl":8345,"vest":8346,"anis":8347,"rau":8348,"ramai":8349,"atama":8350,"asso":8351,"ergi":8352,"uring":8353,"cig":8354,"ciwaduk":8355,"subak":8356,"komer":8357,"ulun":8358,"rita":8359,"tab":8360,"tabu":8361,"rw07":8362,"sial":8363,"siborong":8364,"jowo":8365,"perusahaan":8366,"selam":8367,"sawi":8368,"sabil":8369,"boe":8370,"bom":8371,"sepin":8372,"bange":8373,"love":8374,"warnasari":8375,"rei":8376,"pasawahan":8377,"13120":8378,"bian":8379,"batut":8380,"puj":8381,"kalijaya":8382,"mesuji":8383,"mudal":8384,"bont":8385,"marl":8386,"marke":8387,"sembalun":8388,"hop":8389,"lux":8390,"vision":8391,"palma":8392,"pion":8393,"samarang":8394,"baleh":8395,"cilame":8396,"jarak":8397,"sunyara":8398,"246":8399,"pesangg":8400,"geo":8401,"ahmada":8402,"mine":8403,"60117":8404,"sidoarum":8405,"surgi":8406,"gring":8407,"sarang":8408,"347":8409,"pengin":8410,"proj":8411,"karaoke":8412,"pedas":8413,"brilink":8414,"purwoyoso":8415,"munaw":8416,"muncul":8417,"bada":8418,"foot":8419,"bangunharjo":8420,"kontra":8421,"mariwati":8422,"13420":8423,"kedopok":8424,"ventura":8425,"mamah":8426,"opti":8427,"dwikora":8428,"kumb":8429,"hanggo":8430,"alfamrt":8431,"gumuruh":8432,"wirogunan":8433,"lakarsantri":8434,"kutowinangun":8435,"meunasah":8436,"tatura":8437,"papanggungan":8438,"pkk":8439,"pudakpayung":8440,"condet":8441,"bunderan":8442,"tasikmadu":8443,"puspiptek":8444,"jomblang":8445,"70714":8446,"rantepao":8447,"mugassari":8448,"topaz":8449,"metropolitan":8450,"talagasari":8451,"kadungora":8452,"bulukumba":8453,"cisurupan":8454,"gubernur":8455,"sunyaragi":8456,"app":8457,"eva":8458,"k2":8459,"ppt":8460,"saka":8461,"tanggung":8462,"yul":8463,"yana":8464,"ragu":8465,"atmo":8466,"kepulau":8467,"kekalik":8468,"asta":8469,"enter":8470,"rt08":8471,"rt004":8472,"adua":8473,"bubut":8474,"oris":8475,"esi":8476,"esik":8477,"undaan":8478,"rw10":8479,"rw09":8480,"maula":8481,"tant":8482,"pace":8483,"pajar":8484,"paciran":8485,"pane":8486,"asir":8487,"romo":8488,"12140":8489,"dagen":8490,"mannur":8491,"seram":8492,"lotek":8493,"loceret":8494,"ampek":8495,"real":8496,"15118":8497,"15153":8498,"17146":8499,"mugi":8500,"maran":8501,"tuha":8502,"serangan":8503,"berbek":8504,"sempur":8505,"semplak":8506,"kemla":8507,"kio":8508,"kuw":8509,"palaran":8510,"pallangga":8511,"balla":8512,"cilaku":8513,"tello":8514,"sukab":8515,"weh":8516,"pember":8517,"wanare":8518,"burang":8519,"pust":8520,"60133":8521,"buluro":8522,"339":8523,"jerawat":8524,"cipagalo":8525,"kamboja":8526,"sinta":8527,"mulyoharjo":8528,"gene":8529,"watch":8530,"pekuncen":8531,"setara":8532,"rengel":8533,"60227":8534,"gembong":8535,"urai":8536,"trus":8537,"tret":8538,"talas":8539,"bangunsari":8540,"sukamakmur":8541,"15411":8542,"kahar":8543,"sirnag":8544,"17433":8545,"sadai":8546,"hasanah":8547,"12560":8548,"ashari":8549,"borneo":8550,"klitren":8551,"kbp":8552,"soedi":8553,"13730":8554,"nusukan":8555,"12870":8556,"10560":8557,"14320":8558,"lumb":8559,"ratus":8560,"setiadarma":8561,"sutoyo":8562,"tics":8563,"ogtog":8564,"krueng":8565,"kruing":8566,"pendem":8567,"ciketing":8568,"klapanunggal":8569,"nerogtog":8570,"esaan":8571,"pembantu":8572,"access":8573,"cinde":8574,"dolog":8575,"kotakulon":8576,"nenas":8577,"sukaragam":8578,"aikmel":8579,"wadungasri":8580,"posyandu":8581,"pemasaran":8582,"blahbatuh":8583,"gypsum":8584,"gajahmada":8585,"panembahan":8586,"cimareme":8587,"manokwari":8588,"panyingkiran":8589,"rajapolah":8590,"kepulauan":8591,"mannuruki":8592,"bulurokeng":8593,"321":8594,"633":8595,"aza":8596,"fant":8597,"gule":8598,"hni":8599,"heal":8600,"iring":8601,"jad":8602,"kj":8603,"kama":8604,"kpad":8605,"kwijen":8606,"nine":8607,"ojo":8608,"oasis":8609,"rela":8610,"rendeng":8611,"sadi":8612,"ted":8613,"usu":8614,"vc":8615,"wam":8616,"xxii":8617,"zar":8618,"rapp":8619,"alpu":8620,"keno":8621,"kedam":8622,"asat":8623,"ence":8624,"cibur":8625,"tiy":8626,"suhar":8627,"suprat":8628,"komun":8629,"ond":8630,"adat":8631,"adin":8632,"admin":8633,"buliang":8634,"jao":8635,"japos":8636,"orch":8637,"rim":8638,"enggan":8639,"kayo":8640,"maw":8641,"sika":8642,"jodi":8643,"pau":8644,"pakem":8645,"papar":8646,"lish":8647,"laga":8648,"lapang":8649,"etra":8650,"mobi":8651,"wareng":8652,"haq":8653,"jatiwar":8654,"jatiendah":8655,"15124":8656,"15156":8657,"peu":8658,"wisi":8659,"muju":8660,"mardi":8661,"tamani":8662,"tamantirto":8663,"karangmalang":8664,"mila":8665,"milo":8666,"purbayan":8667,"20122":8668,"madras":8669,"gilang":8670,"semer":8671,"gadu":8672,"kuc":8673,"adipala":8674,"pener":8675,"gore":8676,"gorden":8677,"keniten":8678,"30114":8679,"mene":8680,"jura":8681,"meli":8682,"jamur":8683,"gunungbatu":8684,"malo":8685,"pelat":8686,"ireng":8687,"irmolo":8688,"khat":8689,"grati":8690,"505":8691,"geneng":8692,"urih":8693,"uriti":8694,"tail":8695,"gerendeng":8696,"65154":8697,"munc":8698,"surat":8699,"poly":8700,"bras":8701,"60213":8702,"nanda":8703,"11740":8704,"banyuanyar":8705,"trunan":8706,"sanggau":8707,"eral":8708,"15418":8709,"kanginan":8710,"hasanudin":8711,"tirtawana":8712,"11440":8713,"40293":8714,"pringgo":8715,"ambarketawang":8716,"rasana":8717,"tinu":8718,"sawoj":8719,"jamika":8720,"12330":8721,"ipb":8722,"latif":8723,"bedali":8724,"lumban":8725,"lumbung":8726,"lyon":8727,"pancawati":8728,"hadimulyo":8729,"pendrikan":8730,"20226":8731,"tree":8732,"refl":8733,"karuwisi":8734,"prokla":8735,"sombala":8736,"pindad":8737,"perdagangan":8738,"pengantin":8739,"tirtonirmolo":8740,"aisyiyah":8741,"ramayana":8742,"kwijenan":8743,"335":8744,"565":8745,"ain":8746,"brum":8747,"bhu":8748,"cara":8749,"cadas":8750,"etan":8751,"hpai":8752,"ijen":8753,"jm":8754,"julu":8755,"lut":8756,"mrt":8757,"prep":8758,"qon":8759,"spes":8760,"sonic":8761,"tlo":8762,"ujang":8763,"yyah":8764,"zeni":8765,"rac":8766,"ramin":8767,"asn":8768,"rt4":8769,"ciwi":8770,"cimalaka":8771,"cibalongsari":8772,"akh":8773,"tir":8774,"sutra":8775,"buton":8776,"barom":8777,"esih":8778,"rw2":8779,"sita":8780,"div":8781,"umpang":8782,"pabelan":8783,"bawa":8784,"baure":8785,"bawen":8786,"sabu":8787,"rohim":8788,"setono":8789,"haf":8790,"gayu":8791,"doel":8792,"16152":8793,"soem":8794,"sofa":8795,"dealer":8796,"peh":8797,"endy":8798,"agam":8799,"muan":8800,"semesta":8801,"gadel":8802,"kibin":8803,"vio":8804,"samana":8805,"rub":8806,"sukawening":8807,"307":8808,"prim":8809,"sudirejo":8810,"wear":8811,"putera":8812,"tenun":8813,"temas":8814,"268":8815,"286":8816,"358":8817,"hanj":8818,"278":8819,"bumijo":8820,"29b":8821,"gram":8822,"grabag":8823,"pengel":8824,"dukup":8825,"proper":8826,"tria":8827,"trij":8828,"mulyoagung":8829,"juru":8830,"wish":8831,"badas":8832,"plp":8833,"jatine":8834,"brata":8835,"upuk":8836,"consul":8837,"banyudono":8838,"bulakamba":8839,"mesin":8840,"blotongan":8841,"blitar":8842,"exe":8843,"16418":8844,"punto":8845,"laksamana":8846,"kadun":8847,"cikawao":8848,"14420":8849,"13740":8850,"husada":8851,"tumpeng":8852,"90224":8853,"anita":8854,"anisa":8855,"akilan":8856,"cariang":8857,"campurejo":8858,"juli":8859,"tawangmangu":8860,"cornel":8861,"yogyak":8862,"electri":8863,"41371":8864,"kacapiring":8865,"siswo":8866,"podosugih":8867,"samudera":8868,"plumpang":8869,"daging":8870,"61419":8871,"valley":8872,"menduran":8873,"20222":8874,"yatim":8875,"cindai":8876,"babalan":8877,"kesatrian":8878,"pademawu":8879,"malingping":8880,"kemantren":8881,"lhokse":8882,"wilayah":8883,"hidayatullah":8884,"roomo":8885,"sastranegara":8886,"aquarium":8887,"lorenzo":8888,"maulafa":8889,"sirnagalih":8890,"supratman":8891,"baureno":8892,"dukupuntang":8893,"310":8894,"gmim":8895,"ipuh":8896,"lb":8897,"mri":8898,"nari":8899,"pw":8900,"ppi":8901,"qa":8902,"ngis":8903,"nggul":8904,"rapi":8905,"rafi":8906,"amu":8907,"cime":8908,"cikaret":8909,"elia":8910,"ako":8911,"koko":8912,"onegaran":8913,"ute":8914,"araya":8915,"ese":8916,"kawat":8917,"mayong":8918,"diah":8919,"dies":8920,"dika":8921,"disamping":8922,"jono":8923,"ummah":8924,"edo":8925,"payaman":8926,"paeun":8927,"pandawa":8928,"ekan":8929,"sapan":8930,"bono":8931,"alifa":8932,"12150":8933,"12160":8934,"seun":8935,"ital":8936,"reza":8937,"refor":8938,"paso":8939,"pasang":8940,"15145":8941,"wayan":8942,"sora":8943,"agan":8944,"wich":8945,"muaro":8946,"jian":8947,"andre":8948,"tebo":8949,"pakaian":8950,"bekas":8951,"cipen":8952,"kubang":8953,"kubis":8954,"gedo":8955,"18b":8956,"naf":8957,"naj":8958,"sambu":8959,"ranah":8960,"cepo":8961,"gordyn":8962,"306":8963,"30151":8964,"juma":8965,"mergo":8966,"primer":8967,"wangsan":8968,"galery":8969,"kram":8970,"wonoayu":8971,"abdur":8972,"pelam":8973,"26b":8974,"burger":8975,"356":8976,"kulim":8977,"369":8978,"36a":8979,"555":8980,"332":8981,"padangsari":8982,"341":8983,"349":8984,"jepa":8985,"klen":8986,"57552":8987,"delod":8988,"561":8989,"mojokerto":8990,"talo":8991,"talok":8992,"she":8993,"pucuk":8994,"inium":8995,"sidor":8996,"bordir":8997,"sulaiman":8998,"srengat":8999,"azka":9000,"bpjs":9001,"dayaan":9002,"angkeng":9003,"10210":9004,"mamasa":9005,"surodadi":9006,"surodina":9007,"10730":9008,"photog":9009,"bks":9010,"gumuk":9011,"rohman":9012,"arjawinangun":9013,"mangkujayan":9014,"lawangg":9015,"purwanegara":9016,"imopuro":9017,"celluler":9018,"cimpaeun":9019,"partner":9020,"jalaksana":9021,"aluminium":9022,"pakualaman":9023,"nyomp":9024,"tenjolaya":9025,"lohbener":9026,"sosromenduran":9027,"tsanaw":9028,"pinaesaan":9029,"minomartani":9030,"plaosan":9031,"patimban":9032,"ciruas":9033,"execu":9034,"surodinawan":9035,"433":9036,"911":9037,"922":9038,"apu":9039,"cant":9040,"epi":9041,"gb":9042,"glas":9043,"hamp":9044,"hkbp":9045,"iga":9046,"ibul":9047,"j5":9048,"joni":9049,"kina":9050,"mami":9051,"neh":9052,"nyai":9053,"opera":9054,"obatan":9055,"plamongan":9056,"sle":9057,"sokan":9058,"slogo":9059,"ananda":9060,"ngok":9061,"rao":9062,"razak":9063,"ator":9064,"no3":9065,"nova":9066,"ciu":9067,"cigombong":9068,"cikoneng":9069,"til":9070,"tit":9071,"tiku":9072,"sutar":9073,"bub":9074,"busi":9075,"barru":9076,"taz":9077,"unus":9078,"iic":9079,"kelor":9080,"toh":9081,"karam":9082,"karel":9083,"peremp":9084,"bawal":9085,"panceng":9086,"ukun":9087,"ukir":9088,"sayung":9089,"liwa":9090,"sarik":9091,"bangsan":9092,"jatiw":9093,"15116":9094,"15132":9095,"gabek":9096,"14270":9097,"biz":9098,"bike":9099,"gob":9100,"pujon":9101,"pec":9102,"pepel":9103,"peure":9104,"wolo":9105,"marina":9106,"mimba":9107,"andri":9108,"20b":9109,"berok":9110,"partai":9111,"parupuk":9112,"duo":9113,"viva":9114,"pino":9115,"puli":9116,"pulang":9117,"pulas":9118,"nabire":9119,"matesih":9120,"19b":9121,"praj":9122,"belo":9123,"rejoso":9124,"telu":9125,"teles":9126,"nganan":9127,"sukapada":9128,"mertasi":9129,"40191":9130,"pelindung":9131,"21b":9132,"tegalgundil":9133,"wanaherang":9134,"burangkeng":9135,"grobo":9136,"satya":9137,"297":9138,"lintang":9139,"sark":9140,"jenis":9141,"50196":9142,"derma":9143,"triharjo":9144,"brand":9145,"damri":9146,"391":9147,"462":9148,"show":9149,"singaran":9150,"singonegaran":9151,"42a":9152,"geli":9153,"gelo":9154,"cangkiran":9155,"brasta":9156,"60255":9157,"mojowarno":9158,"hudi":9159,"gonda":9160,"monex":9161,"tuntang":9162,"cupak":9163,"nagara":9164,"17413":9165,"17423":9166,"jalen":9167,"petilan":9168,"cihuni":9169,"lll":9170,"banyur":9171,"indraloka":9172,"sugio":9173,"transmart":9174,"elektrik":9175,"bhayangkara":9176,"tlogomulyo":9177,"batanghari":9178,"cilongok":9179,"kedopak":9180,"kedonganan":9181,"13520":9182,"13530":9183,"cariu":9184,"10710":9185,"weni":9186,"kepuharjo":9187,"forum":9188,"gumilir":9189,"serasan":9190,"kejaksaan":9191,"gaharu":9192,"tunjungan":9193,"banjaragung":9194,"narmada":9195,"kalimanah":9196,"zein":9197,"ldii":9198,"cikijing":9199,"tempeh":9200,"dawai":9201,"bellagio":9202,"istiqomah":9203,"katolik":9204,"kotakaler":9205,"siomay":9206,"pgc":9207,"puspita":9208,"kurao":9209,"perpust":9210,"greges":9211,"aditya":9212,"torium":9213,"potrobangsan":9214,"iringmulyo":9215,"cornelia":9216,"lawanggintung":9217,"pepelegi":9218,"mertasinga":9219,"brastagi":9220,"2e":9221,"423":9222,"755":9223,"753":9224,"aini":9225,"clot":9226,"dede":9227,"eat":9228,"j2":9229,"syai":9230,"td":9231,"wina":9232,"yeni":9233,"aryo":9234,"arema":9235,"angko":9236,"rap":9237,"ragi":9238,"radin":9239,"alumu":9240,"kemur":9241,"kete":9242,"kepung":9243,"tising":9244,"ony":9245,"buko":9246,"bumen":9247,"utami":9248,"engku":9249,"rw12":9250,"kele":9251,"karsa":9252,"mach":9253,"silo":9254,"diba":9255,"dimas":9256,"dipuran":9257,"paint":9258,"pakemi":9259,"bago":9260,"bayam":9261,"panai":9262,"lil":9263,"bolu":9264,"ative":9265,"rozak":9266,"sariw":9267,"daa":9268,"isla":9269,"ismail":9270,"sepang":9271,"lovina":9272,"mot":9273,"moko":9274,"itang":9275,"masbagik":9276,"hay":9277,"13b":9278,"14b":9279,"idrus":9280,"bilu":9281,"puhan":9282,"pupuan":9283,"pee":9284,"agency":9285,"jimb":9286,"marah":9287,"margonda":9288,"tejo":9289,"berombak":9290,"hima":9291,"hars":9292,"hartono":9293,"kijang":9294,"adiy":9295,"penye":9296,"prasta":9297,"balap":9298,"ngantru":9299,"sund":9300,"308":9301,"bukala":9302,"merang":9303,"sudiroh":9304,"40a":9305,"jamil":9306,"darm":9307,"salu":9308,"yamaha":9309,"garum":9310,"gunungsimp":9311,"yaran":9312,"mangsang":9313,"sukomulyo":9314,"khali":9315,"60112":9316,"556":9317,"kalo":9318,"asrikaton":9319,"sampali":9320,"pengobatan":9321,"rajap":9322,"letnan":9323,"pasirluyu":9324,"384":9325,"38a":9326,"clas":9327,"petung":9328,"kedungjaya":9329,"cangk":9330,"fiz":9331,"80351":9332,"catu":9333,"60225":9334,"60243":9335,"60295":9336,"gonilan":9337,"hamzah":9338,"keruk":9339,"krio":9340,"monu":9341,"labuai":9342,"brow":9343,"bromelia":9344,"bustan":9345,"satriajaya":9346,"cucian":9347,"tista":9348,"40292":9349,"unium":9350,"islamiyah":9351,"takagi":9352,"12770":9353,"cililin":9354,"kron":9355,"13750":9356,"azis":9357,"nuha":9358,"pandansari":9359,"latsari":9360,"malio":9361,"bontoa":9362,"sego":9363,"16516":9364,"pacci":9365,"keraj":9366,"argawana":9367,"ctv":9368,"jumbo":9369,"taliwang":9370,"bondongan":9371,"accessori":9372,"cirimekar":9373,"bumbu":9374,"karunrung":9375,"bimbel":9376,"40394":9377,"sukadanau":9378,"vesh":9379,"amerta":9380,"grobogan":9381,"pakemitan":9382,"gunungsimping":9383,"accessories":9384,"b19":9385,"dulu":9386,"degan":9387,"eyang":9388,"f8":9389,"itan":9390,"ich":9391,"jre":9392,"lind":9393,"ntb":9394,"qis":9395,"rk":9396,"ngijo":9397,"yapen":9398,"kest":9399,"kejambon":9400,"enrek":9401,"insur":9402,"ciso":9403,"ciate":9404,"citro":9405,"supp":9406,"suite":9407,"kolan":9408,"adah":9409,"emsonic":9410,"ulama":9411,"oren":9412,"make":9413,"maps":9414,"sikap":9415,"joy":9416,"jobo":9417,"jogor":9418,"perb":9419,"tandang":9420,"baca":9421,"bajenis":9422,"ligar":9423,"boss":9424,"lavesh":9425,"roc":9426,"dawe":9427,"seba":9428,"moto":9429,"modo":9430,"15155":9431,"gapuro":9432,"gajahan":9433,"yudi":9434,"karanga":9435,"karangpoh":9436,"ptpn":9437,"lebah":9438,"lebong":9439,"pakata":9440,"sempakata":9441,"parkiran":9442,"lura":9443,"kian":9444,"kiwi":9445,"kiwo":9446,"pian":9447,"kebonmanis":9448,"makkio":9449,"juw":9450,"wangon":9451,"summare":9452,"kragilan":9453,"putus":9454,"lano":9455,"lame":9456,"265":9457,"pulomerak":9458,"lorejo":9459,"tarutung":9460,"348":9461,"nurus":9462,"chris":9463,"tritis":9464,"trihanggo":9465,"prenggan":9466,"bambe":9467,"bahasa":9468,"resident":9469,"surab":9470,"tanjun":9471,"80113":9472,"randusari":9473,"babakancikao":9474,"60286":9475,"kurun":9476,"ilun":9477,"gandusari":9478,"spn":9479,"lebaksiu":9480,"monjok":9481,"olshop":9482,"dema":9483,"kertawinangun":9484,"17424":9485,"jaln":9486,"kates":9487,"12230":9488,"15323":9489,"chik":9490,"12760":9491,"14430":9492,"13770":9493,"13230":9494,"apit":9495,"industry":9496,"90221":9497,"mangunk":9498,"bidara":9499,"13540":9500,"psr":9501,"setiamulya":9502,"ngadirojo":9503,"raff":9504,"khair":9505,"16710":9506,"silalas":9507,"lontarbaru":9508,"townhouse":9509,"solaria":9510,"nisp":9511,"lrg":9512,"taylor":9513,"ferry":9514,"iqbal":9515,"alumunium":9516,"toddopuli":9517,"simatupang":9518,"mimika":9519,"engineering":9520,"pemerin":9521,"banggae":9522,"tegineneng":9523,"football":9524,"pengelola":9525,"siswodipuran":9526,"ngisor":9527,"diesel":9528,"mimbaan":9529,"jalenjaya":9530,"bukalapak":9531,"jrebeng":9532,"ciateul":9533,"426":9534,"avi":9535,"dali":9536,"gl":9537,"h3":9538,"hb":9539,"honi":9540,"iuh":9541,"jp":9542,"kwar":9543,"kft":9544,"lere":9545,"mpo":9546,"nal":9547,"oman":9548,"paling":9549,"rok":9550,"sati":9551,"sbl":9552,"shan":9553,"sanggrahan":9554,"swal":9555,"sler":9556,"wun":9557,"ane":9558,"anam":9559,"arg":9560,"rasuna":9561,"kepat":9562,"kecik":9563,"kehut":9564,"inst":9565,"ahang":9566,"supar":9567,"sudah":9568,"kono":9569,"kopeng":9570,"araga":9571,"rif":9572,"rih":9573,"english":9574,"undung":9575,"sital":9576,"perdamaian":9577,"tano":9578,"payo":9579,"selu":9580,"eks":9581,"eksp":9582,"saa":9583,"safira":9584,"lisa":9585,"bow":9586,"bogen":9587,"dawet":9588,"pogot":9589,"mom":9590,"mos":9591,"pasaman":9592,"jatinom":9593,"15b":9594,"bles":9595,"blus":9596,"soft":9597,"batal":9598,"17117":9599,"pepaya":9600,"kalitengah":9601,"wifi":9602,"muamal":9603,"miri":9604,"mill":9605,"teba":9606,"rahmah":9607,"purb":9608,"purwad":9609,"20124":9610,"mulawa":9611,"himo":9612,"param":9613,"kirai":9614,"vien":9615,"sukra":9616,"pidi":9617,"penanggungan":9618,"alamanda":9619,"cacing":9620,"iva":9621,"ranu":9622,"rudin":9623,"juwet":9624,"401":9625,"antasan":9626,"269":9627,"gepuk":9628,"rumpin":9629,"banjararum":9630,"puspo":9631,"359":9632,"35122":9633,"35132":9634,"kertasari":9635,"ground":9636,"277":9637,"60154":9638,"nita":9639,"sanj":9640,"jatayu":9641,"554":9642,"55b":9643,"jagasat":9644,"leksi":9645,"kunti":9646,"jewel":9647,"premi":9648,"ganjar":9649,"factory":9650,"ulangi":9651,"lingk":9652,"gerit":9653,"463":9654,"rambung":9655,"peku":9656,"60254":9657,"tuna":9658,"greenwich":9659,"qui":9660,"girimaya":9661,"more":9662,"palabuhan":9663,"16424":9664,"syarif":9665,"mario":9666,"kado":9667,"13830":9668,"halat":9669,"pangkalanjati":9670,"13790":9671,"belajar":9672,"tumenggungan":9673,"16517":9674,"venir":9675,"pspt":9676,"ratulangi":9677,"bkk":9678,"corp":9679,"nambo":9680,"punggur":9681,"kutoharjo":9682,"20211":9683,"ledeng":9684,"bendogerit":9685,"munjuljaya":9686,"40534":9687,"jampang":9688,"maulana":9689,"polowijen":9690,"athfal":9691,"milk":9692,"lambangjaya":9693,"paniki":9694,"sisingamang":9695,"cagar":9696,"nirm":9697,"tukangkayu":9698,"dprd":9699,"sumpiuh":9700,"solusi":9701,"basir":9702,"advert":9703,"advertising":9704,"widodo":9705,"brug":9706,"toilet":9707,"cilembang":9708,"virgo":9709,"sukasada":9710,"perhubungan":9711,"perbaungan":9712,"pptm":9713,"burangrang":9714,"tiying":9715,"barombong":9716,"property":9717,"banyuresmi":9718,"slerok":9719,"sitalasari":9720,"jagasatru":9721,"3e":9722,"318":9723,"awal":9724,"b11":9725,"b10":9726,"bpd":9727,"cai":9728,"dhe":9729,"f5":9730,"gha":9731,"his":9732,"ima":9733,"mumbul":9734,"owan":9735,"outer":9736,"plang":9737,"swe":9738,"sdit":9739,"tini":9740,"yulia":9741,"ares":9742,"rasam":9743,"amas":9744,"alm":9745,"yakan":9746,"kejawa":9747,"kedew":9748,"uren":9749,"unga":9750,"cibaru":9751,"cimen":9752,"cisan":9753,"cimba":9754,"elem":9755,"elly":9756,"akbp":9757,"kosm":9758,"kodim":9759,"onta":9760,"adu":9761,"adeka":9762,"buki":9763,"buna":9764,"jap":9765,"jabal":9766,"jack":9767,"barana":9768,"emah":9769,"emera":9770,"uling":9771,"ory":9772,"aragan":9773,"riv":9774,"esem":9775,"tais":9776,"undan":9777,"kabel":9778,"rw4":9779,"tomer":9780,"total":9781,"mawa":9782,"ditan":9783,"dikaran":9784,"pacing":9785,"baolan":9786,"panaragan":9787,"tambu":9788,"saat":9789,"bodoa":9790,"atihan":9791,"sarirejo":9792,"12450":9793,"12250":9794,"12270":9795,"seven":9796,"bangi":9797,"loyo":9798,"moga":9799,"itra":9800,"itas":9801,"maspion":9802,"biu":9803,"soed":9804,"aia":9805,"17143":9806,"kalimalang":9807,"kalicacing":9808,"agra":9809,"agil":9810,"mejobo":9811,"marj":9812,"karangraharja":9813,"terisi":9814,"gunt":9815,"pakar":9816,"semam":9817,"bekam":9818,"022":9819,"pangilun":9820,"palum":9821,"sawu":9822,"pensi":9823,"matang":9824,"sambal":9825,"ceu":9826,"mako":9827,"baturaden":9828,"merk":9829,"salah":9830,"salero":9831,"pemenang":9832,"pemangkat":9833,"wonoasih":9834,"wonoasri":9835,"patok":9836,"pelatihan":9837,"280":9838,"mangkuku":9839,"bengle":9840,"cela":9841,"bursa":9842,"burneh":9843,"60115":9844,"60185":9845,"nibung":9846,"551":9847,"553":9848,"kalpa":9849,"sarb":9850,"saras":9851,"337":9852,"uluwatu":9853,"rawon":9854,"374":9855,"faj":9856,"juran":9857,"dinatan":9858,"dinami":9859,"oscar":9860,"purwodinatan":9861,"kedungwuluh":9862,"tambakreja":9863,"rambang":9864,"setya":9865,"jelegong":9866,"fif":9867,"jaktim":9868,"zae":9869,"60222":9870,"dula":9871,"greenland":9872,"cuc":9873,"pariwi":9874,"arjowinangun":9875,"sadeng":9876,"16413":9877,"hiday":9878,"11420":9879,"76114":9880,"mentok":9881,"15326":9882,"12730":9883,"pekalangan":9884,"13710":9885,"azza":9886,"kintamani":9887,"ajiba":9888,"trowulan":9889,"weda":9890,"bidar":9891,"13620":9892,"songgo":9893,"16310":9894,"dwik":9895,"ght":9896,"stay":9897,"swata":9898,"well":9899,"keboan":9900,"space":9901,"icha":9902,"ories":9903,"ibrahim":9904,"nasution":9905,"pacific":9906,"knal":9907,"sananwetan":9908,"ginting":9909,"seroja":9910,"dadok":9911,"sutawinangun":9912,"dander":9913,"customer":9914,"muarasari":9915,"bougenville":9916,"adventure":9917,"arcawinangun":9918,"kuantan":9919,"laboratorium":9920,"33684":9921,"buyut":9922,"gandrungmangu":9923,"55598":9924,"fairmont":9925,"paiton":9926,"qadr":9927,"komering":9928,"bangetayu":9929,"wamena":9930,"perempatan":9931,"enrekang":9932,"summarecon":9933,"muamalat":9934,"sisingamangaraja":9935,"kejawaan":9936,"emerald":9937,"mangkukusuman":9938,"dinamika":9939,"ajeng":9940,"axa":9941,"brt":9942,"cry":9943,"dring":9944,"djua":9945,"evi":9946,"galan":9947,"grin":9948,"hutat":9949,"iba":9950,"ili":9951,"jhon":9952,"kasa":9953,"nes":9954,"oma":9955,"rh":9956,"rya":9957,"rsu":9958,"spr":9959,"trem":9960,"var":9961,"yur":9962,"arcam":9963,"rawi":9964,"ramen":9965,"yakub":9966,"keto":9967,"keparakan":9968,"nongan":9969,"cie":9970,"cisi":9971,"citari":9972,"cikondang":9973,"akat":9974,"kori":9975,"japan":9976,"jajag":9977,"rik":9978,"rica":9979,"tapen":9980,"tabuk":9981,"tabungan":9982,"engah":9983,"iib":9984,"rw11":9985,"karak":9986,"karamp":9987,"sibau":9988,"sipir":9989,"jodoh":9990,"perf":9991,"ummi":9992,"tanamo":9993,"pagentan":9994,"pante":9995,"11160":9996,"sago":9997,"sapt":9998,"boo":9999,"bolon":10000,"aliyah":10001,"mande":10002,"mania":10003,"bangjaya":10004,"bangilan":10005,"itri":10006,"warta":10007,"15119":10008,"14370":10009,"bih":10010,"bik":10011,"bibit":10012,"dolar":10013,"baturiti":10014,"puja":10015,"deco":10016,"devi":10017,"17135":10018,"pecang":10019,"wijayan":10020,"maradeka":10021,"andy":10022,"tep":10023,"tuma":10024,"levis":10025,"purno":10026,"semang":10027,"multa":10028,"hie":10029,"coto":10030,"gudo":10031,"pangen":10032,"padep":10033,"geda":10034,"saweri":10035,"caca":10036,"naz":10037,"ive":10038,"rancak":10039,"prawiro":10040,"22b":10041,"danas":10042,"prigi":10043,"kras":10044,"puter":10045,"bendi":10046,"bente":10047,"temon":10048,"pulosari":10049,"mangk":10050,"wanaraja":10051,"pusdi":10052,"60165":10053,"60178":10054,"nipa":10055,"saro":10056,"sampe":10057,"gramedia":10058,"pengan":10059,"kutawaringin":10060,"jenu":10061,"chri":10062,"proyon":10063,"trio":10064,"375":10065,"32b":10066,"brin":10067,"lingku":10068,"sumberwadung":10069,"cluring":10070,"dukuhwaru":10071,"posko":10072,"rembi":10073,"566":10074,"472":10075,"sektret":10076,"kedal":10077,"tekn":10078,"60281":10079,"60284":10080,"60294":10081,"kurma":10082,"wasp":10083,"amanda":10084,"nanj":10085,"68121":10086,"68131":10087,"lebakgede":10088,"banyuurip":10089,"margas":10090,"metl":10091,"vera":10092,"sangkan":10093,"purwok":10094,"16432":10095,"sys":10096,"gedanganak":10097,"sekarpuro":10098,"gula":10099,"pandanaran":10100,"hero":10101,"tumbak":10102,"gasana":10103,"12820":10104,"bisnis":10105,"mangunsari":10106,"kepandean":10107,"segi":10108,"14340":10109,"carik":10110,"simpan":10111,"comm":10112,"baroh":10113,"datu":10114,"16820":10115,"situb":10116,"margomulyo":10117,"tanggerang":10118,"lpk":10119,"cijulang":10120,"spect":10121,"creative":10122,"solokpandan":10123,"fuji":10124,"educa":10125,"ranau":10126,"course":10127,"tunggulwulung":10128,"film":10129,"diamond":10130,"jetak":10131,"souvenir":10132,"tsanawiyah":10133,"babussalam":10134,"anjatan":10135,"cigending":10136,"lhokseuma":10137,"glass":10138,"merangir":10139,"karangawen":10140,"putussibau":10141,"vienna":10142,"karampuang":10143,"sipirok":10144,"maradekaya":10145,"proyonanggan":10146,"534":10147,"9c":10148,"ave":10149,"cad":10150,"c12":10151,"cctv":10152,"dpd":10153,"dengan":10154,"equ":10155,"g4":10156,"gungan":10157,"h6":10158,"ica":10159,"lasi":10160,"lindung":10161,"obos":10162,"otista":10163,"rokan":10164,"tg":10165,"twin":10166,"uin":10167,"vid":10168,"yok":10169,"arin":10170,"arun":10171,"arwana":10172,"ngi":10173,"ngel":10174,"angel":10175,"raung":10176,"rata":10177,"rawang":10178,"atha":10179,"alok":10180,"keme":10181,"no2":10182,"nov":10183,"note":10184,"integ":10185,"ungkuk":10186,"aho":10187,"cibogor":10188,"cijeruk":10189,"cikas":10190,"cikahuripan":10191,"ella":10192,"tif":10193,"tiket":10194,"koba":10195,"bup":10196,"butung":10197,"jabung":10198,"utug":10199,"oruan":10200,"kayang":10201,"rw1":10202,"rw3":10203,"kelas":10204,"keledang":10205,"toto":10206,"tohir":10207,"sire":10208,"joang":10209,"perer":10210,"perus":10211,"perleng":10212,"pawah":10213,"selem":10214,"11550":10215,"tamang":10216,"botu":10217,"lapis":10218,"daar":10219,"poer":10220,"massa":10221,"rey":10222,"jatingal":10223,"15131":10224,"15147":10225,"gape":10226,"sopu":10227,"soeh":10228,"17157":10229,"peus":10230,"pecatu":10231,"kalisapu":10232,"kaligandu":10233,"wolio":10234,"karangkidul":10235,"karangkl":10236,"karangtempel":10237,"terus":10238,"terjun":10239,"leat":10240,"beber":10241,"haren":10242,"hom":10243,"kij":10244,"kiki":10245,"vic":10246,"vict":10247,"pendowo":10248,"caw":10249,"rant":10250,"rantai":10251,"ruh":10252,"negri":10253,"melintang":10254,"jeren":10255,"sunggum":10256,"tega":10257,"pembina":10258,"patal":10259,"patung":10260,"tempuran":10261,"28292":10262,"mangli":10263,"wanto":10264,"mahe":10265,"35131":10266,"453":10267,"satri":10268,"paming":10269,"sukosari":10270,"cengkeh":10271,"290":10272,"299":10273,"sanim":10274,"33b":10275,"penghulu":10276,"50192":10277,"chem":10278,"kamu":10279,"probolinggo":10280,"mulyasari":10281,"asaba":10282,"dindi":10283,"653":10284,"654":10285,"65144":10286,"65139":10287,"kedungsari":10288,"lemba":10289,"arena":10290,"singgasana":10291,"plant":10292,"567":10293,"bandungan":10294,"citraland":10295,"tingal":10296,"polres":10297,"53282":10298,"card":10299,"41a":10300,"ayasa":10301,"lash":10302,"cilinaya":10303,"mtc":10304,"pucangan":10305,"bojon":10306,"bojone":10307,"bingai":10308,"exten":10309,"16426":10310,"sindangmulya":10311,"12720":10312,"kenayan":10313,"kret":10314,"plosok":10315,"pdsi":10316,"sorea":10317,"tump":10318,"61271":10319,"10510":10320,"10520":10321,"10240":10322,"13630":10323,"bedu":10324,"arjasari":10325,"gedongkiwo":10326,"furqon":10327,"donom":10328,"kumpul":10329,"bangkingan":10330,"natura":10331,"ayun":10332,"rohmah":10333,"hegarmukti":10334,"balapulang":10335,"jombor":10336,"masigi":10337,"dewata":10338,"tatah":10339,"politeknik":10340,"gadobangkong":10341,"district":10342,"barito":10343,"muchtar":10344,"kereo":10345,"cukur":10346,"accesories":10347,"sigli":10348,"gegesik":10349,"mempawah":10350,"sulit":10351,"kondangjaya":10352,"hardware":10353,"nugraha":10354,"santoso":10355,"solution":10356,"muaradua":10357,"pamekaran":10358,"colection":10359,"souv":10360,"simatu":10361,"fitness":10362,"habib":10363,"sanggul":10364,"crown":10365,"glory":10366,"suzuki":10367,"kasemen":10368,"living":10369,"gorontalo":10370,"warmindo":10371,"institut":10372,"pujut":10373,"marketing":10374,"kedamean":10375,"sikaping":10376,"jogoroto":10377,"pemerintah":10378,"celaket":10379,"dringu":10380,"hutatoruan":10381,"jatingaleh":10382,"karangklesem":10383,"319":10384,"5d":10385,"635":10386,"6138":10387,"743":10388,"aat":10389,"c11":10390,"cup":10391,"ction":10392,"dt":10393,"dahan":10394,"dinda":10395,"djem":10396,"f7":10397,"fud":10398,"io":10399,"itam":10400,"jj":10401,"juni":10402,"ladi":10403,"m1":10404,"mbl":10405,"mbun":10406,"nana":10407,"nina":10408,"nmr":10409,"oen":10410,"ole":10411,"over":10412,"rindo":10413,"sn":10414,"tgk":10415,"ub":10416,"vd":10417,"veg":10418,"weng":10419,"wrin":10420,"yem":10421,"anang":10422,"andong":10423,"arangan":10424,"atk":10425,"ambun":10426,"amsar":10427,"alli":10428,"yayi":10429,"keam":10430,"kesu":10431,"kebak":10432,"kepek":10433,"rt09":10434,"ciban":10435,"cicah":10436,"kopang":10437,"advo":10438,"bude":10439,"jauh":10440,"jagal":10441,"empo":10442,"emmy":10443,"esda":10444,"tajung":10445,"unk":10446,"kawed":10447,"rw08":10448,"toy":10449,"sira":10450,"sidar":10451,"dimun":10452,"ditiro":10453,"pergu":10454,"murt":10455,"murhum":10456,"pagambiran":10457,"baung":10458,"panenjo":10459,"sagara":10460,"licin":10461,"bohar":10462,"bandi":10463,"bandr":10464,"timuran":10465,"10c":10466,"asiran":10467,"roban":10468,"rock":10469,"daffa":10470,"isl":10471,"pohon":10472,"lopang":10473,"ingapu":10474,"mongan":10475,"itun":10476,"poncok":10477,"15121":10478,"15143":10479,"gaja":10480,"waingapu":10481,"dou":10482,"down":10483,"sog":10484,"pud":10485,"puti":10486,"kaliga":10487,"kalisuren":10488,"karangmekar":10489,"terian":10490,"mich":10491,"tuh":10492,"lewat":10493,"20111":10494,"berry":10495,"bersau":10496,"sempidi":10497,"cover":10498,"vih":10499,"kupat":10500,"kuburan":10501,"gumaya":10502,"pangau":10503,"nau":10504,"najah":10505,"cepiring":10506,"pray":10507,"sukabungah":10508,"30163":10509,"stre":10510,"sudiro":10511,"hajimena":10512,"wonokerto":10513,"patam":10514,"besitang":10515,"temba":10516,"tembaga":10517,"jongaya":10518,"malin":10519,"maluk":10520,"pelang":10521,"pelni":10522,"28b":10523,"bengk":10524,"451":10525,"minas":10526,"298":10527,"langkat":10528,"338":10529,"34a":10530,"erial":10531,"kled":10532,"sumbergempol":10533,"daman":10534,"three":10535,"purwomartani":10536,"392":10537,"46a":10538,"srikaton":10539,"geluran":10540,"mandor":10541,"kabasiran":10542,"jakut":10543,"594":10544,"ilmi":10545,"kase":10546,"omega":10547,"krik":10548,"63b":10549,"bangunjiwo":10550,"kandat":10551,"purwak":10552,"legu":10553,"brong":10554,"sukamelang":10555,"kond":10556,"kangen":10557,"exc":10558,"exp":10559,"16415":10560,"16425":10561,"16421":10562,"11430":10563,"tahi":10564,"marimbun":10565,"tongas":10566,"sidakaya":10567,"tinjo":10568,"soepr":10569,"bantarsari":10570,"accu":10571,"wanayasa":10572,"aroma":10573,"mediteran":10574,"12830":10575,"bps":10576,"malimongan":10577,"kapasa":10578,"bulusidokare":10579,"vene":10580,"arjasa":10581,"keramik":10582,"ikhsan":10583,"mtsn":10584,"gumi":10585,"truck":10586,"adewa":10587,"kosmetik":10588,"lubangbuaya":10589,"sushi":10590,"khoi":10591,"petap":10592,"mangkubumen":10593,"radja":10594,"ambacang":10595,"tembokrejo":10596,"refleksi":10597,"28826":10598,"cosme":10599,"mujair":10600,"fortuna":10601,"dlm":10602,"cicau":10603,"janapria":10604,"salsabila":10605,"masyarakat":10606,"fauzi":10607,"lariang":10608,"nayla":10609,"klegen":10610,"kertanegara":10611,"bandongan":10612,"glenmore":10613,"inspeksi":10614,"batutulis":10615,"health":10616,"adminis":10617,"rasanae":10618,"electric":10619,"peureulak":10620,"angkola":10621,"tambusai":10622,"citaringgul":10623,"tanamodindi":10624,"pecangaan":10625,"selemadeg":10626,"cicaheum":10627,"panenjoan":10628,"bandrek":10629,"pangauban":10630,"632":10631,"822":10632,"aut":10633,"cd":10634,"cbd":10635,"easy":10636,"fre":10637,"fru":10638,"glem":10639,"hud":10640,"imarah":10641,"j1":10642,"kwa":10643,"kpri":10644,"mran":10645,"n2":10646,"ndalem":10647,"pamp":10648,"sada":10649,"vy":10650,"vide":10651,"wk":10652,"yg":10653,"yeg":10654,"arm":10655,"aron":10656,"arengka":10657,"ange":10658,"angkan":10659,"alma":10660,"aldi":10661,"yap":10662,"kecom":10663,"ciasem":10664,"cijengkol":10665,"titan":10666,"tidu":10667,"sua":10668,"sugo":10669,"buj":10670,"japa":10671,"tapin":10672,"tapung":10673,"kabil":10674,"tow":10675,"totok":10676,"siba":10677,"sipai":10678,"diwangsan":10679,"joss":10680,"pagang":10681,"baa":10682,"bayi":10683,"panu":10684,"jayakarta":10685,"sapp":10686,"sey":10687,"seraya":10688,"bangau":10689,"lop":10690,"mash":10691,"hawa":10692,"past":10693,"pasundan":10694,"13260":10695,"jatirejo":10696,"bie":10697,"bisa":10698,"goan":10699,"dog":10700,"16153":10701,"batag":10702,"puu":10703,"puma":10704,"17114":10705,"17132":10706,"pejeruk":10707,"kalimas":10708,"kalitidu":10709,"meura":10710,"widi":10711,"muam":10712,"bonsari":10713,"martu":10714,"iiib":10715,"teweh":10716,"tutik":10717,"leko":10718,"medono":10719,"bejen":10720,"bersaudara":10721,"keml":10722,"deso":10723,"cool":10724,"gaddong":10725,"guma":10726,"paluh":10727,"penan":10728,"penun":10729,"kebonwaru":10730,"samin":10731,"samsung":10732,"cepat":10733,"teler":10734,"304":10735,"menang":10736,"negaran":10737,"juan":10738,"museum":10739,"403":10740,"40184":10741,"jamban":10742,"jamik":10743,"cemorok":10744,"23b":10745,"sungkai":10746,"pemu":10747,"wonotingal":10748,"bento":10749,"bende":10750,"patria":10751,"patemon":10752,"besa":10753,"lamtoro":10754,"267":10755,"irfan":10756,"pulos":10757,"mahmud":10758,"banjarangkan":10759,"kerti":10760,"279":10761,"27b":10762,"60182":10763,"366":10764,"55a":10765,"saru":10766,"344":10767,"pengkol":10768,"pengob":10769,"pengkolan":10770,"uluj":10771,"dukan":10772,"airy":10773,"387":10774,"petshop":10775,"39a":10776,"pineleng":10777,"466":10778,"44a":10779,"games":10780,"80571":10781,"nusapenida":10782,"lasut":10783,"cingcin":10784,"60233":10785,"60239":10786,"upc":10787,"ilahi":10788,"margajaya":10789,"bilah":10790,"kromeng":10791,"kersana":10792,"mampir":10793,"banyuputih":10794,"montong":10795,"gebangsari":10796,"toni":10797,"ext":10798,"tisno":10799,"gusung":10800,"12410":10801,"parangtritis":10802,"baleharjo":10803,"tuminting":10804,"90233":10805,"16913":10806,"13610":10807,"10310":10808,"karanganom":10809,"rizq":10810,"xxv":10811,"15211":10812,"drive":10813,"saiyo":10814,"saigon":10815,"lemahputro":10816,"merapi":10817,"pungkur":10818,"fird":10819,"80234":10820,"80239":10821,"41373":10822,"20212":10823,"yudanagara":10824,"bendosari":10825,"kawanan":10826,"15224":10827,"jayaraga":10828,"abianbase":10829,"iskandarsyah":10830,"maleo":10831,"maleer":10832,"playen":10833,"olahraga":10834,"bimbi":10835,"paccerakang":10836,"langenharjo":10837,"polehan":10838,"ciheu":10839,"mcd":10840,"basirih":10841,"sembilan":10842,"40553":10843,"laborat":10844,"klego":10845,"agarian":10846,"advok":10847,"mulawarman":10848,"gladak":10849,"pungging":10850,"brumbungan":10851,"partners":10852,"citrodiwangsan":10853,"palumbonsari":10854,"songgokerto":10855,"tamangapa":10856,"djemma":10857,"mediterania":10858,"cemorokandang":10859,"kromengan":10860,"500":10861,"6c":10862,"642":10863,"756":10864,"a16":10865,"crea":10866,"ever":10867,"fel":10868,"fami":10869,"fatih":10870,"gari":10871,"kmp":10872,"klan":10873,"kinan":10874,"nk":10875,"naman":10876,"slt":10877,"skip":10878,"smile":10879,"usumo":10880,"wind":10881,"annisa":10882,"rain":10883,"ragil":10884,"keci":10885,"kenong":10886,"erejo":10887,"inspe":10888,"cirang":10889,"cicu":10890,"cimandala":10891,"ciwareng":10892,"tikal":10893,"suy":10894,"koang":10895,"koro":10896,"adn":10897,"budaya":10898,"jagad":10899,"japura":10900,"barusari":10901,"emo":10902,"rijang":10903,"rilau":10904,"este":10905,"esong":10906,"kaj":10907,"kabun":10908,"kagungan":10909,"karsam":10910,"majan":10911,"site":10912,"sigi":10913,"perkre":10914,"perhub":10915,"payan":10916,"bayuh":10917,"selan":10918,"selin":10919,"selaras":10920,"panum":10921,"panua":10922,"boar":10923,"indri":10924,"10120":10925,"10150":10926,"alie":10927,"rosl":10928,"sarimukti":10929,"dayah":10930,"ishak":10931,"manuk":10932,"manda":10933,"pod":10934,"pongan":10935,"sejuk":10936,"lobak":10937,"modi":10938,"model":10939,"gabaya":10940,"sopon":10941,"sofi":10942,"aim":10943,"pesut":10944,"perahu":10945,"wiwi":10946,"mub":10947,"mufa":10948,"mudik":10949,"karangayu":10950,"karangampel":10951,"terb":10952,"mita":10953,"tuo":10954,"serum":10955,"yogi":10956,"pakde":10957,"semaki":10958,"kempas":10959,"himp":10960,"hive":10961,"cou":10962,"vita":10963,"kurak":10964,"kumai":10965,"cabean":10966,"naya":10967,"matoa":10968,"samad":10969,"samsat":10970,"bund":10971,"prapat":10972,"telp":10973,"telpon":10974,"sunu":10975,"305":10976,"menta":10977,"danuku":10978,"stok":10979,"daru":10980,"25b":10981,"2558":10982,"sungkono":10983,"gale":10984,"galesong":10985,"garam":10986,"24b":10987,"kutorejo":10988,"drink":10989,"pato":10990,"tempur":10991,"28156":10992,"wanasaba":10993,"train":10994,"hankam":10995,"kidang":10996,"60116":10997,"368":10998,"lint":10999,"langit":11000,"kundur":11001,"503":11002,"378":11003,"sinembah":11004,"lemp":11005,"shol":11006,"sholi":11007,"shopee":11008,"wado":11009,"mandal":11010,"cangkir":11011,"polta":11012,"80363":11013,"80582":11014,"zaitun":11015,"60245":11016,"60244":11017,"60256":11018,"60241":11019,"tyt":11020,"hamb":11021,"hamadi":11022,"banyuw":11023,"baktisera":11024,"62a":11025,"cuan":11026,"blik":11027,"sading":11028,"tahir":11029,"jadirejo":11030,"pori":11031,"wall":11032,"11240":11033,"jemaat":11034,"12420":11035,"rinjani":11036,"yatul":11037,"kompas":11038,"nuur":11039,"12940":11040,"10620":11041,"hea":11042,"heaven":11043,"baitus":11044,"kembangsari":11045,"13650":11046,"simok":11047,"50232":11048,"campang":11049,"batunu":11050,"sehati":11051,"yosodadi":11052,"flower":11053,"muth":11054,"firm":11055,"kemirirejo":11056,"kirim":11057,"abub":11058,"jumat":11059,"retno":11060,"singajaya":11061,"haurpanggung":11062,"nology":11063,"sukahurip":11064,"zebra":11065,"sliyeg":11066,"izer":11067,"playst":11068,"safari":11069,"cilenggang":11070,"sirnabaya":11071,"harmony":11072,"margadadi":11073,"rampah":11074,"kemenangan":11075,"peliatan":11076,"apartment":11077,"informasi":11078,"bogow":11079,"40559":11080,"prembun":11081,"hijrah":11082,"pejagan":11083,"loundry":11084,"mobile":11085,"semeru":11086,"penganjuran":11087,"rembiga":11088,"poncokusumo":11089,"kecomberan":11090,"batagor":11091,"tisnonegaran":11092,"karsamenak":11093,"danukusuman":11094,"baktiseraga":11095,".(":11096,"417":11097,"a11":11098,"apt":11099,"ayo":11100,"bhas":11101,"dn":11102,"dakan":11103,"ekon":11104,"enok":11105,"fr":11106,"fid":11107,"free":11108,"hks":11109,"jed":11110,"klangon":11111,"m2":11112,"nala":11113,"nura":11114,"nela":11115,"oes":11116,"sro":11117,"shar":11118,"spare":11119,"zal":11120,"ance":11121,"arl":11122,"angka":11123,"raci":11124,"ratih":11125,"raos":11126,"amri":11127,"kedi":11128,"kedukan":11129,"inasa":11130,"unge":11131,"ell":11132,"sutami":11133,"adara":11134,"buat":11135,"buak":11136,"barongan":11137,"embung":11138,"okgak":11139,"uncang":11140,"mainan":11141,"siam":11142,"sikur":11143,"dilan":11144,"paen":11145,"bagas":11146,"selera":11147,"panar":11148,"tampak":11149,"tambli":11150,"sag":11151,"boya":11152,"bojo":11153,"banuh":11154,"banyakan":11155,"laba":11156,"asing":11157,"mandalam":11158,"bangkeng":11159,"lounge":11160,"ampi":11161,"mol":11162,"refi":11163,"gowa":11164,"sod":11165,"somad":11166,"batus":11167,"batuk":11168,"pucak":11169,"17c":11170,"peral":11171,"kalibagor":11172,"mea":11173,"mee":11174,"meul":11175,"wibi":11176,"tepat":11177,"rahm":11178,"lebo":11179,"lewo":11180,"purut":11181,"20351":11182,"madin":11183,"pakuncen":11184,"bekri":11185,"kiha":11186,"gugus":11187,"cawas":11188,"nawa":11189,"mate":11190,"material":11191,"makale":11192,"prad":11193,"belut":11194,"rejotangan":11195,"teleko":11196,"gorengan":11197,"gangsa":11198,"melin":11199,"cemeng":11200,"weis":11201,"galu":11202,"kragan":11203,"pemong":11204,"kutuk":11205,"kutuh":11206,"jongg":11207,"bengkayang":11208,"maharaja":11209,"60111":11210,"60127":11211,"cinu":11212,"suryat":11213,"sandi":11214,"36361":11215,"jangkung":11216,"kaltim":11217,"sarah":11218,"kpn":11219,"grap":11220,"346":11221,"pengasih":11222,"jenangan":11223,"50a":11224,"pasirw":11225,"pasirian":11226,"deretan":11227,"kami":11228,"kamil":11229,"prospect":11230,"rawas":11231,"brandan":11232,"rajagaluh":11233,"gerokgak":11234,"383":11235,"deles":11236,"dinata":11237,"65151":11238,"kedungpring":11239,"pinr":11240,"441":11241,"pekand":11242,"gambi":11243,"gelatik":11244,"tingkat":11245,"cangakan":11246,"jele":11247,"486":11248,"48a":11249,"fiyah":11250,"adap":11251,"60252":11252,"60282":11253,"nano":11254,"candipuro":11255,"candirenggo":11256,"banyuasri":11257,"trek":11258,"mona":11259,"matapel":11260,"legenda":11261,"78112":11262,"sedau":11263,"konsu":11264,"15416":11265,"megu":11266,"giripurwo":11267,"warih":11268,"tonj":11269,"jalu":11270,"porsea":11271,"punai":11272,"pringgabaya":11273,"kadum":11274,"bendung":11275,"limboto":11276,"kbn":11277,"oney":11278,"gulai":11279,"medical":11280,"herman":11281,"andai":11282,"walisongo":11283,"latang":11284,"latamba":11285,"90234":11286,"mangunkusumo":11287,"jengan":11288,"61252":11289,"mandalawangi":11290,"dadapsari":11291,"lumut":11292,"turirejo":11293,"50249":11294,"commun":11295,"rizqi":11296,"xxx":11297,"xxiv":11298,"photocopy":11299,"corn":11300,"pilangsari":11301,"bread":11302,"flora":11303,"gisting":11304,"patokannya":11305,"16680":11306,"bhumi":11307,"khoir":11308,"technology":11309,"aisyah":11310,"matika":11311,"pumpu":11312,"kedondong":11313,"samaan":11314,"ketileng":11315,"getasan":11316,"kakak":11317,"nogosari":11318,"counter":11319,"riverside":11320,"cosmo":11321,"mukomuko":11322,"spesial":11323,"organizer":11324,"mumus":11325,"sticker":11326,"harjasari":11327,"mlajah":11328,"white":11329,"ebony":11330,"kalinyam":11331,"milono":11332,"pulasaren":11333,"bustanul":11334,"kronjo":11335,"sweet":11336,"rasamala":11337,"decora":11338,"sawerigading":11339,"pererenan":11340,"satriamekar":11341,"paminggir":11342,"puuwatu":11343,"meuraxa":11344,"advokat":11345,"kenongo":11346,"banuhampu":11347,"latambaga":11348,"330":11349,"4d":11350,"929":11351,"937":11352,"ax":11353,"aest":11354,"b12":11355,"djaya":11356,"fandi":11357,"fone":11358,"gati":11359,"gina":11360,"h7":11361,"hun":11362,"krand":11363,"mta":11364,"nada":11365,"nadia":11366,"ojek":11367,"pc":11368,"rind":11369,"spi":11370,"udi":11371,"ujong":11372,"vb":11373,"wc":11374,"yp":11375,"zaki":11376,"arek":11377,"arch":11378,"atam":11379,"atung":11380,"alya":11381,"kemand":11382,"keadilan":11383,"asgar":11384,"energi":11385,"rt10":11386,"rt007":11387,"ciang":11388,"cilu":11389,"elet":11390,"akun":11391,"tio":11392,"suara":11393,"susa":11394,"sulan":11395,"koi":11396,"koyo":11397,"kodau":11398,"bupati":11399,"jajan":11400,"jaket":11401,"taxi":11402,"unta":11403,"unis":11404,"magn":11405,"sisi":11406,"siran":11407,"simaling":11408,"dibelakang":11409,"pertanahan":11410,"umroh":11411,"eddy":11412,"baur":11413,"selang":11414,"sayan":11415,"sabra":11416,"bodas":11417,"bandem":11418,"lago":11419,"manjing":11420,"polem":11421,"setail":11422,"bangorejo":11423,"masp":11424,"repa":11425,"hap":11426,"iden":11427,"bimbing":11428,"gog":11429,"dot":11430,"soer":11431,"pujas":11432,"devel":11433,"pepe":11434,"petom":11435,"petanahan":11436,"endra":11437,"endro":11438,"kaliurang":11439,"agri":11440,"wie":11441,"wiji":11442,"mujur":11443,"jihad":11444,"bonar":11445,"marco":11446,"karangturi":11447,"terr":11448,"mika":11449,"andr":11450,"lea":11451,"sere":11452,"bebandem":11453,"luwes":11454,"cipun":11455,"kipas":11456,"kiev":11457,"gugob":11458,"adiri":11459,"adiyasa":11460,"18c":11461,"pic":11462,"pier":11463,"piji":11464,"pendo":11465,"alami":11466,"kebonbaru":11467,"kebonbatur":11468,"math":11469,"sambel":11470,"buntung":11471,"sukaw":11472,"gangga":11473,"404":11474,"40552":11475,"jamal":11476,"jambudi":11477,"salma":11478,"lanto":11479,"lamgugob":11480,"malintang":11481,"pulomas":11482,"banjarbaru":11483,"35b":11484,"455":11485,"sukon":11486,"minah":11487,"60174":11488,"60132":11489,"60187":11490,"sidol":11491,"36b":11492,"5579":11493,"55198":11494,"karyawan":11495,"imban":11496,"kppn":11497,"kunc":11498,"jepon":11499,"warujay":11500,"jenar":11501,"dermo":11502,"kamas":11503,"prot":11504,"trisi":11505,"trijaya":11506,"manggahang":11507,"fact":11508,"sumberjo":11509,"sumbermanjing":11510,"38b":11511,"652":11512,"65142":11513,"65149":11514,"ponggok":11515,"brid":11516,"purwoasri":11517,"395":11518,"pine":11519,"mayb":11520,"sulur":11521,"442":11522,"indomart":11523,"gelu":11524,"43a":11525,"tirtayasa":11526,"patimura":11527,"kedundung":11528,"terapi":11529,"wastu":11530,"ltc":11531,"krisna":11532,"70123":11533,"bongsari":11534,"simongan":11535,"ibukota":11536,"bandengan":11537,"888":11538,"17422":11539,"expres":11540,"16431":11541,"cihamp":11542,"sumowono":11543,"11210":11544,"profes":11545,"nasgor":11546,"13780":11547,"marabahan":11548,"leuw":11549,"13340":11550,"walis":11551,"walikota":11552,"10630":11553,"head":11554,"13510":11555,"10540":11556,"tuanku":11557,"14330":11558,"optic":11559,"citapen":11560,"kariang":11561,"jasm":11562,"dharmah":11563,"situraja":11564,"merakurak":11565,"kairagi":11566,"welut":11567,"cokrodiningratan":11568,"balongbendo":11569,"mutta":11570,"majasari":11571,"donan":11572,"anggilan":11573,"pengajaran":11574,"15229":11575,"kotasari":11576,"telawang":11577,"talib":11578,"telkomsel":11579,"sigma":11580,"nelayan":11581,"63491":11582,"40391":11583,"dandangan":11584,"kementerian":11585,"alexand":11586,"salemba":11587,"kremes":11588,"spesialis":11589,"komodo":11590,"trisno":11591,"mnc":11592,"wedarijaksa":11593,"frans":11594,"shinta":11595,"framas":11596,"bethesda":11597,"tupper":11598,"grudo":11599,"gowongan":11600,"wakaf":11601,"wanareja":11602,"executive":11603,"hamparan":11604,"panaikang":11605,"raffles":11606,"sungguminasa":11607,"sidareja":11608,"downhill":11609,"petapahan":11610,"video":11611,"selincah":11612,"hksn":11613,"simalingkar":11614,"bimbingan":11615,"pujasera":11616,"petompon":11617,"jambudipa":11618,"warujayeng":11619,"1f":11620,"2nd":11621,"324":11622,"327":11623,"329":11624,"663":11625,"935":11626,"ajung":11627,"bii":11628,"d9":11629,"e7":11630,"ewa":11631,"fk":11632,"gle":11633,"gahan":11634,"hug":11635,"mpu":11636,"nc":11637,"natas":11638,"oga":11639,"palim":11640,"stel":11641,"sindo":11642,"spog":11643,"tus":11644,"tres":11645,"tumar":11646,"vit":11647,"vanda":11648,"zon":11649,"ngim":11650,"ngrong":11651,"ngiden":11652,"rasi":11653,"ambas":11654,"allo":11655,"yad":11656,"kedan":11657,"kedua":11658,"asahan":11659,"now":11660,"inhu":11661,"unggul":11662,"citi":11663,"cimerak":11664,"cikalang":11665,"cikembar":11666,"ciharen":11667,"tiong":11668,"tidak":11669,"sui":11670,"onto":11671,"adeng":11672,"jafar":11673,"baringin":11674,"rib":11675,"rivi":11676,"tayan":11677,"tabam":11678,"kajar":11679,"rw5":11680,"kareum":11681,"jomin":11682,"jogan":11683,"jolot":11684,"perusa":11685,"babul":11686,"bayah":11687,"bajak":11688,"selok":11689,"11140":11690,"jayagiri":11691,"limas":11692,"bantur":11693,"10450":11694,"12c":11695,"daen":11696,"isdi":11697,"seas":11698,"sebesi":11699,"lolong":11700,"ampalu":11701,"mono":11702,"pond":11703,"rean":11704,"13570":11705,"14120":11706,"bic":11707,"bimba":11708,"blul":11709,"blakang":11710,"pasarean":11711,"doy":11712,"16c":11713,"sosial":11714,"batara":11715,"puca":11716,"puput":11717,"pujok":11718,"depag":11719,"depart":11720,"17136":11721,"kaliangkri":11722,"martoba":11723,"yura":11724,"yuka":11725,"yuda":11726,"tupai":11727,"seran":11728,"pako":11729,"muli":11730,"hili":11731,"hiling":11732,"harta":11733,"paras":11734,"horas":11735,"cook":11736,"cowek":11737,"duduk":11738,"victor":11739,"kupu":11740,"kuwu":11741,"pado":11742,"gedongan":11743,"piayu":11744,"penin":11745,"cakes":11746,"naura":11747,"rancan":11748,"prajan":11749,"rudy":11750,"cilamp":11751,"belik":11752,"belly":11753,"kenagarian":11754,"30b":11755,"mendawai":11756,"pringa":11757,"wangunan":11758,"anton":11759,"jamblang":11760,"sales":11761,"pemuka":11762,"bungin":11763,"tenaga":11764,"tangi":11765,"seneng":11766,"wanagari":11767,"buring":11768,"35141":11769,"kertamulya":11770,"bojongbata":11771,"jalancagak":11772,"lekir":11773,"sampit":11774,"graj":11775,"jejalenjaya":11776,"pengum":11777,"pengambangan":11778,"50149":11779,"trimulyo":11780,"pasirkareum":11781,"pedang":11782,"gergunung":11783,"65146":11784,"purwoharjo":11785,"rakit":11786,"467":11787,"remu":11788,"janji":11789,"singk":11790,"setyo":11791,"473":11792,"47a":11793,"bast":11794,"tula":11795,"ayap":11796,"807":11797,"80115":11798,"80112":11799,"60234":11800,"60253":11801,"kurek":11802,"kasturi":11803,"11710":11804,"mondo":11805,"kusm":11806,"bongaya":11807,"sukamahi":11808,"ngawen":11809,"artz":11810,"11560":11811,"tonro":11812,"manisrenggo":11813,"17435":11814,"17431":11815,"palay":11816,"raihan":11817,"walen":11818,"silicon":11819,"yato":11820,"echo":11821,"tine":11822,"rasau":11823,"widyo":11824,"widuri":11825,"13240":11826,"senden":11827,"dikit":11828,"10610":11829,"seger":11830,"16518":11831,"13560":11832,"vent":11833,"16969":11834,"mamba":11835,"13640":11836,"syad":11837,"gedongombo":11838,"50272":11839,"10720":11840,"10320":11841,"perawang":11842,"sayuran":11843,"tarub":11844,"serayu":11845,"ayin":11846,"balonggede":11847,"pomala":11848,"cetak":11849,"donut":11850,"khaya":11851,"lompoa":11852,"16455":11853,"sondakan":11854,"selopuro":11855,"pengawas":11856,"jombatan":11857,"ship":11858,"bags":11859,"suryodiningratan":11860,"setabelan":11861,"koramil":11862,"naila":11863,"ciawigebang":11864,"yasmin":11865,"hutani":11866,"pejagoan":11867,"wukir":11868,"keude":11869,"aksesoris":11870,"edelweis":11871,"insani":11872,"handp":11873,"pranoto":11874,"lembursitu":11875,"vespa":11876,"sumput":11877,"mujahidin":11878,"stock":11879,"telepon":11880,"udayana":11881,"samoja":11882,"candung":11883,"kanopan":11884,"cangkringan":11885,"zainu":11886,"somagede":11887,"aqila":11888,"festive":11889,"leuwinutug":11890,"clothing":11891,"sokanegara":11892,"showroom":11893,"sarolangun":11894,"peusangan":11895,"kaligawe":11896,"street":11897,"malinau":11898,"imbanagara":11899,"ciharendong":11900,"pujokusuman":11901,"kaliangkrik":11902,"pasirkareumbi":11903,"3f":11904,"320":11905,"ao":11906,"aer":11907,"aci":11908,"a15":11909,"bedug":11910,"blau":11911,"cb":11912,"cj":11913,"cangan":11914,"dro":11915,"fx":11916,"guri":11917,"ht":11918,"ial":11919,"ipin":11920,"kweni":11921,"mete":11922,"mgr":11923,"n0":11924,"p3":11925,"pli":11926,"patan":11927,"rar":11928,"rara":11929,"sco":11930,"uz":11931,"ucok":11932,"wasi":11933,"xl":11934,"xt":11935,"ypi":11936,"anni":11937,"arasari":11938,"ngab":11939,"ngaringan":11940,"ngrami":11941,"amet":11942,"aldir":11943,"yaaho":11944,"kebang":11945,"kejayan":11946,"kesenden":11947,"ental":11948,"cidu":11949,"elit":11950,"suwi":11951,"kopen":11952,"buang":11953,"busung":11954,"butuh":11955,"jaj":11956,"jael":11957,"ric":11958,"rise":11959,"rice":11960,"okal":11961,"kacam":11962,"karema":11963,"karanggan":11964,"magi":11965,"sida":11966,"sipon":11967,"sinom":11968,"sidayu":11969,"perwak":11970,"eda":11971,"murod":11972,"pavi":11973,"baut":11974,"bayaran":11975,"selasa":11976,"ekspe":11977,"tamin":11978,"tambi":11979,"sao":11980,"sav":11981,"liman":11982,"bota":11983,"indr":11984,"indro":11985,"lagun":11986,"lawas":11987,"lave":11988,"sarim":11989,"12190":11990,"poma":11991,"polis":11992,"bangah":11993,"lomp":11994,"moham":11995,"modal":11996,"pasai":11997,"15133":11998,"14110":11999,"idah":12000,"bili":12001,"bimo":12002,"biola":12003,"gogo":12004,"good":12005,"domas":12006,"16117":12007,"batok":12008,"tengaran":12009,"deu":12010,"dedi":12011,"dewo":12012,"aiue":12013,"peno":12014,"yuw":12015,"anggr":12016,"andar":12017,"tebel":12018,"tuka":12019,"sersan":12020,"purwah":12021,"madinah":12022,"bedilan":12023,"berikat":12024,"cole":12025,"lua":12026,"kanor":12027,"kanwil":12028,"cipenjo":12029,"kilo":12030,"kuat":12031,"kualuh":12032,"adipura":12033,"tanjungan":12034,"padas":12035,"pita":12036,"penu":12037,"pening":12038,"buny":12039,"pratu":12040,"bell":12041,"belle":12042,"batuj":12043,"batuan":12044,"teling":12045,"bintana":12046,"kompi":12047,"stp":12048,"muso":12049,"selabintana":12050,"darut":12051,"salin":12052,"sumampir":12053,"pemo":12054,"pembayaran":12055,"bungura":12056,"patu":12057,"sds":12058,"tempo":12059,"maluku":12060,"28293":12061,"tegalkamulyan":12062,"celu":12063,"celep":12064,"trasi":12065,"tradisi":12066,"banjarbendo":12067,"45153":12068,"handi":12069,"bojongsalaman":12070,"taruman":12071,"sukowati":12072,"khr":12073,"khal":12074,"60198":12075,"60188":12076,"bumirejo":12077,"jeruklegi":12078,"saradan":12079,"produk":12080,"trim":12081,"trit":12082,"breng":12083,"pasirjambu":12084,"taip":12085,"aua":12086,"airmadi":12087,"385":12088,"386":12089,"389":12090,"65a":12091,"65119":12092,"65163":12093,"bamban":12094,"lembo":12095,"464":12096,"sriba":12097,"watam":12098,"443":12099,"remp":12100,"sety":12101,"gatra":12102,"jeli":12103,"jelu":12104,"53a":12105,"jakbar":12106,"59a":12107,"zaini":12108,"adae":12109,"60235":12110,"60261":12111,"60283":12112,"51a":12113,"kasw":12114,"hui":12115,"ketok":12116,"great":12117,"lebakwangi":12118,"67153":12119,"kayangan":12120,"tunju":12121,"mesir":12122,"ringroad":12123,"sukamoro":12124,"konsultan":12125,"ngaw":12126,"nagarasari":12127,"primajasa":12128,"76115":12129,"40295":12130,"ketajen":12131,"fath":12132,"waluh":12133,"13870":12134,"halu":12135,"limbu":12136,"takat":12137,"tukmudal":12138,"pakuhaji":12139,"13760":12140,"bantarsoka":12141,"leuwis":12142,"belanti":12143,"heru":12144,"minima":12145,"61258":12146,"internet":12147,"complex":12148,"16914":12149,"syafi":12150,"10440":12151,"50241":12152,"10750":12153,"cipicung":12154,"kutilang":12155,"xxiii":12156,"xxvi":12157,"jasin":12158,"jasmine":12159,"fast":12160,"hangat":12161,"situgede":12162,"nanggerang":12163,"zie":12164,"jurangombo":12165,"punggawan":12166,"lotte":12167,"sonokwijenan":12168,"riska":12169,"first":12170,"ulihan":12171,"sutojayan":12172,"hegarsari":12173,"awangan":12174,"80225":12175,"20216":12176,"choco":12177,"cikeruh":12178,"muhdi":12179,"financial":12180,"supermarket":12181,"haurgeulis":12182,"crew":12183,"university":12184,"drain":12185,"kawakilan":12186,"bugangan":12187,"refle":12188,"puhun":12189,"hasim":12190,"handphone":12191,"logistics":12192,"dhien":12193,"empangsari":12194,"bangsalsari":12195,"krembung":12196,"flyo":12197,"laiya":12198,"sepakat":12199,"holiday":12200,"purwawinangun":12201,"bulog":12202,"kemasan":12203,"alternatif":12204,"kepahiang":12205,"pimpinan":12206,"jasinga":12207,"pruden":12208,"ciburial":12209,"mergosono":12210,"nyomplong":12211,"gapurosukolilo":12212,"semambung":12213,"crys":12214,"plosoklaten":12215,"tajungkang":12216,"martubung":12217,"panumbangan":12218,"pekandangan":12219,"gambirono":12220,"ngronggot":12221,"cilampeni":12222,"pengumben":12223,"kureksari":12224,"aldiron":12225,"yaahowu":12226,"lagundri":12227,"aiueo":12228,"bungurasih":12229,"airmadidi":12230,"340":12231,"543":12232,"5117":12233,"919":12234,"a17":12235,"b20":12236,"bsp":12237,"c15":12238,"cana":12239,"dorang":12240,"dedy":12241,"fest":12242,"g7":12243,"gut":12244,"gantar":12245,"hem":12246,"hor":12247,"imah":12248,"k3":12249,"kwan":12250,"mk":12251,"mok":12252,"maman":12253,"ndeso":12254,"oil":12255,"p1":12256,"pkp":12257,"rp":12258,"rsia":12259,"swi":12260,"stop":12261,"squa":12262,"tet":12263,"thi":12264,"vang":12265,"vale":12266,"wuri":12267,"antik":12268,"anjungan":12269,"ngas":12270,"rajam":12271,"atle":12272,"amah":12273,"ampana":12274,"kebal":12275,"kebakaran":12276,"kedokan":12277,"kerot":12278,"aspen":12279,"nona":12280,"encep":12281,"inc":12282,"rt5":12283,"rt005":12284,"ciung":12285,"cibening":12286,"ciwed":12287,"elite":12288,"suaka":12289,"subulus":12290,"kobar":12291,"koma":12292,"adatu":12293,"buya":12294,"risma":12295,"engl":12296,"unter":12297,"arian":12298,"kabila":12299,"rw18":12300,"toman":12301,"tonga":12302,"maesa":12303,"sidik":12304,"didepan":12305,"diklat":12306,"jogon":12307,"perhi":12308,"ume":12309,"umen":12310,"usal":12311,"paw":12312,"bajeng":12313,"selorejo":12314,"panon":12315,"11180":12316,"bowo":12317,"boge":12318,"10140":12319,"10160":12320,"lais":12321,"lautan":12322,"rokok":12323,"dawi":12324,"dabasah":12325,"dapoer":12326,"manoi":12327,"poasia":12328,"potoro":12329,"sepan":12330,"sekawan":12331,"ampal":12332,"itti":12333,"wart":12334,"mastrip":12335,"reno":12336,"habit":12337,"jatis":12338,"15152":12339,"gora":12340,"goog":12341,"16124":12342,"16143":12343,"bate":12344,"batung":12345,"kalisat":12346,"wiry":12347,"jip":12348,"mary":12349,"karangwaru":12350,"milan":12351,"tebat":12352,"tuadae":12353,"20118":12354,"gift":12355,"beur":12356,"pakat":12357,"kemul":12358,"cooki":12359,"luwung":12360,"gadis":12361,"023":12362,"vip":12363,"kubung":12364,"gua":12365,"guar":12366,"palam":12367,"pade":12368,"padam":12369,"piano":12370,"dena":12371,"deni":12372,"puluhan":12373,"sams":12374,"sambit":12375,"19c":12376,"buntok":12377,"prabon":12378,"telko":12379,"sukag":12380,"ahanan":12381,"jualan":12382,"priuk":12383,"wangkal":12384,"stal":12385,"ston":12386,"stpi":12387,"40162":12388,"selabatu":12389,"garm":12390,"sumbe":12391,"pemanggilan":12392,"wonosalam":12393,"wonopringgo":12394,"gunungparang":12395,"ikasi":12396,"lamindo":12397,"tempu":12398,"tempayan":12399,"28125":12400,"senan":12401,"senjaya":12402,"tegalharjo":12403,"rumbio":12404,"trad":12405,"mahoni":12406,"banjarharjo":12407,"grong":12408,"60131":12409,"60161":12410,"sidoagung":12411,"cengka":12412,"surod":12413,"sanjaya":12414,"kalangan":12415,"buluk":12416,"centur":12417,"pengem":12418,"canary":12419,"pancor":12420,"mbokan":12421,"377":12422,"379":12423,"37b":12424,"klas":12425,"lingkung":12426,"gerem":12427,"depn":12428,"pettuadae":12429,"651":12430,"65175":12431,"65147":12432,"bridal":12433,"394":12434,"kedungrejo":12435,"raksa":12436,"mayjend":12437,"arani":12438,"ramba":12439,"pekut":12440,"sahid":12441,"kayuambon":12442,"42117":12443,"keluar":12444,"tinggar":12445,"482":12446,"52a":12447,"zaen":12448,"kuru":12449,"spy":12450,"ateja":12451,"trun":12452,"78242":12453,"brother":12454,"cucu":12455,"ngajum":12456,"sms":12457,"90562":12458,"bandarjo":12459,"16412":12460,"sengkuang":12461,"40254":12462,"pringgok":12463,"13850":12464,"yakin":12465,"lengkongsari":12466,"timbau":12467,"plombokan":12468,"sendanggu":12469,"azzam":12470,"nye":12471,"gasela":12472,"rogoj":12473,"12960":12474,"12840":12475,"wedung":12476,"90242":12477,"minimarket":12478,"10230":12479,"mamat":12480,"pacc":12481,"onald":12482,"bulusari":12483,"sentraya":12484,"rowosari":12485,"services":12486,"klatak":12487,"stain":12488,"umbulmartani":12489,"forest":12490,"margoyoso":12491,"voli":12492,"cimaung":12493,"arifin":12494,"trucuk":12495,"pingit":12496,"rafles":12497,"41361":12498,"sony":12499,"sentolo":12500,"shibi":12501,"grendeng":12502,"hyper":12503,"valen":12504,"ronggolawe":12505,"bumya":12506,"plataran":12507,"cibeusi":12508,"balungbangjaya":12509,"informatika":12510,"klepu":12511,"kejuruan":12512,"patebon":12513,"mns":12514,"scbd":12515,"fontana":12516,"full":12517,"lusive":12518,"wangunharja":12519,"beusi":12520,"ranotana":12521,"sumberagung":12522,"toboali":12523,"leuwinanggung":12524,"timbulharjo":12525,"kresek":12526,"jodipan":12527,"tlog":12528,"cepoko":12529,"pinoh":12530,"nagarawangi":12531,"ganjarasri":12532,"quick":12533,"rivai":12534,"fajri":12535,"ryac":12536,"kedaleman":12537,"wiwik":12538,"training":12539,"refill":12540,"pasirwangi":12541,"alexandria":12542,"pomalaa":12543,"tradisional":12544,"ciwedus":12545,"cookies":12546,"century":12547,"sendangguwo":12548,"328":12549,"465":12550,"912":12551,"927":12552,"a14":12553,"aye":12554,"bf":12555,"b17":12556,"bpi":12557,"braja":12558,"cali":12559,"d12":12560,"fla":12561,"fet":12562,"gt":12563,"g10":12564,"grup":12565,"hk":12566,"hula":12567,"honey":12568,"irw":12569,"jr":12570,"jama":12571,"jakar":12572,"khan":12573,"klang":12574,"lrt":12575,"luna":12576,"oce":12577,"ods":12578,"rsi":12579,"smu":12580,"skad":12581,"segoro":12582,"tati":12583,"tzu":12584,"vor":12585,"winda":12586,"yes":12587,"yit":12588,"anas":12589,"ngang":12590,"nguter":12591,"ngrambe":12592,"angkar":12593,"angsa":12594,"angpuluhan":12595,"raka":12596,"rajek":12597,"ambu":12598,"kepal":12599,"keuta":12600,"asemb":12601,"asyi":12602,"no8":12603,"ers":12604,"erik":12605,"enj":12606,"injau":12607,"ungun":12608,"citan":12609,"cipt":12610,"ciber":12611,"cikal":12612,"cimara":12613,"ciampel":12614,"cibanteng":12615,"cisolok":12616,"eld":12617,"ely":12618,"tien":12619,"sudin":12620,"susut":12621,"kopel":12622,"koni":12623,"adz":12624,"aden":12625,"adung":12626,"baradatu":12627,"ular":12628,"riyah":12629,"taf":12630,"tabek":12631,"tabah":12632,"une":12633,"iis":12634,"kaji":12635,"kajang":12636,"tomat":12637,"maco":12638,"sibang":12639,"situm":12640,"silat":12641,"dipa":12642,"jos":12643,"perem":12644,"perkem":12645,"umpa":12646,"edono":12647,"pain":12648,"paper":12649,"bacan":12650,"11c":12651,"11270":12652,"ego":12653,"egbeg":12654,"sabuk":12655,"limp":12656,"lipi":12657,"lilis":12658,"10570":12659,"laok":12660,"lapo":12661,"rosi":12662,"12550":12663,"dayan":12664,"dawan":12665,"dajan":12666,"dayat":12667,"pora":12668,"poto":12669,"seul":12670,"sevilla":12671,"lolo":12672,"warah":12673,"wardi":12674,"wargi":12675,"warurejo":12676,"hajah":12677,"13550":12678,"jatilawang":12679,"jatisrono":12680,"15343":12681,"blega":12682,"goong":12683,"domba":12684,"16112":12685,"batak":12686,"batuli":12687,"kalianak":12688,"meat":12689,"wito":12690,"wiwitan":12691,"jib":12692,"jiken":12693,"jihan":12694,"yud":12695,"yuyun":12696,"karangsembung":12697,"andala":12698,"tec":12699,"teu":12700,"team":12701,"tebas":12702,"tuw":12703,"leaf":12704,"level":12705,"yoes":12706,"20123":12707,"giok":12708,"gito":12709,"beba":12710,"bebe":12711,"bersalin":12712,"paki":12713,"semayap":12714,"kemran":12715,"hita":12716,"harvest":12717,"parengan":12718,"kanci":12719,"gadut":12720,"kito":12721,"kila":12722,"vim":12723,"kusuman":12724,"panga":12725,"gedeg":12726,"dento":12727,"denanyar":12728,"nafi":12729,"balak":12730,"baledono":12731,"ruma":12732,"rudal":12733,"telan":12734,"menjangan":12735,"priv":12736,"straw":12737,"pemuk":12738,"wonokarto":12739,"drh":12740,"patangpuluhan":12741,"tenuk":12742,"abbas":12743,"temindung":12744,"jonggat":12745,"malaha":12746,"sendiri":12747,"sentana":12748,"tegalboto":12749,"celuk":12750,"kertam":12751,"betu":12752,"betro":12753,"warungboto":12754,"pamulihan":12755,"minuman":12756,"60a":12757,"60179":12758,"tihad":12759,"sanja":12760,"367":12761,"36129":12762,"55162":12763,"kalongan":12764,"lines":12765,"sarwo":12766,"jera":12767,"jebat":12768,"jepang":12769,"chu":12770,"derw":12771,"letkol":12772,"klon":12773,"pasirlaya":12774,"57126":12775,"pinjam":12776,"baht":12777,"asembagus":12778,"56311":12779,"479":12780,"tuli":12781,"tulakan":12782,"fie":12783,"52b":12784,"59567":12785,"808":12786,"nusawungu":12787,"lassang":12788,"60216":12789,"kasang":12790,"spg":12791,"49b":12792,"kriyo":12793,"trend":12794,"sangh":12795,"sangkuri":12796,"kolak":12797,"kolelet":12798,"shid":12799,"yosorejo":12800,"amira":12801,"girimoyo":12802,"17426":12803,"excel":12804,"16423":12805,"11810":12806,"pundi":12807,"menggala":12808,"jempong":12809,"pringgasela":12810,"indraprasta":12811,"13820":12812,"13860":12813,"13880":12814,"islami":12815,"bore":12816,"sindangpalay":12817,"12710":12818,"ciliwung":12819,"joyoboyo":12820,"affandi":12821,"terubuk":12822,"13960":12823,"13310":12824,"tumi":12825,"vermak":12826,"bpn":12827,"ampelgading":12828,"16519":12829,"tombolo":12830,"malangbong":12831,"lumpu":12832,"10410":12833,"10460":12834,"50263":12835,"50275":12836,"dirga":12837,"dato":12838,"randubl":12839,"toroh":12840,"wella":12841,"dakota":12842,"linggajaya":12843,"yosodi":12844,"wirosari":12845,"pingku":12846,"aloha":12847,"riski":12848,"galis":12849,"astanajapura":12850,"gampeng":12851,"sekotong":12852,"80223":12853,"ridwan":12854,"ciganitri":12855,"krui":12856,"cikeusal":12857,"ledo":12858,"singapadu":12859,"sapto":12860,"samanhudi":12861,"jayengan":12862,"nahd":12863,"penyul":12864,"talise":12865,"kalau":12866,"keruak":12867,"jogotrunan":12868,"simalungun":12869,"cihaurbeu":12870,"blkng":12871,"pananjung":12872,"pajangan":12873,"muslimah":12874,"workshop":12875,"pakelan":12876,"blubur":12877,"doors":12878,"surance":12879,"bancarkembar":12880,"musyaw":12881,"klippa":12882,"abror":12883,"associ":12884,"pesanggaran":12885,"apple":12886,"pemberdayaan":12887,"rimuku":12888,"cacaban":12889,"sangkanhurip":12890,"natural":12891,"exclusive":12892,"75683":12893,"25586":12894,"oesapa":12895,"batusangkar":12896,"atambua":12897,"pringapus":12898,"busungbiu":12899,"kebalenan":12900,"potorono":12901,"habitat":12902,"skadron":12903,"cimaragas":12904,"sangkuriang":12905,"cihaurbeuti":12906,"2g":12907,"360":12908,"410":12909,"918":12910,"basem":12911,"c20":12912,"cala":12913,"cata":12914,"dka":12915,"e9":12916,"ein":12917,"eyato":12918,"f11":12919,"f12":12920,"fia":12921,"g8":12922,"h5":12923,"hit":12924,"hejo":12925,"ifa":12926,"ibad":12927,"jade":12928,"kpu":12929,"lend":12930,"lho":12931,"nul":12932,"oz":12933,"odo":12934,"ode":12935,"qq":12936,"sf":12937,"sg":12938,"sorejo":12939,"tsari":12940,"uob":12941,"zia":12942,"zaka":12943,"zuri":12944,"arro":12945,"aros":12946,"ngl":12947,"ngen":12948,"ngopi":12949,"ramad":12950,"atmaja":12951,"amsir":12952,"alfi":12953,"yabhin":12954,"kebung":12955,"kepil":12956,"invest":12957,"ungka":12958,"akor":12959,"tiwi":12960,"suhu":12961,"sugr":12962,"kob":12963,"kosta":12964,"buyan":12965,"ester":12966,"unhas":12967,"kabat":12968,"tose":12969,"toraja":12970,"karpet":12971,"karomah":12972,"karyamukti":12973,"mais":12974,"magh":12975,"mayura":12976,"sikam":12977,"simbang":12978,"sigit":12979,"diatas":12980,"divisi":12981,"perco":12982,"persis":12983,"ust":12984,"ustad":12985,"tania":12986,"tanjuang":12987,"pakembaran":12988,"pabian":12989,"pacuan":12990,"bayung":12991,"bajul":12992,"11110":12993,"11450":12994,"sagal":12995,"safi":12996,"saketi":12997,"lilik":12998,"lipuro":12999,"bod":13000,"bano":13001,"bancah":13002,"10550":13003,"asihan":13004,"roe":13005,"manar":13006,"mando":13007,"mandu":13008,"maninjau":13009,"polan":13010,"sew":13011,"loloan":13012,"losarang":13013,"moo":13014,"rejang":13015,"13c":13016,"13140":13017,"15c":13018,"15146":13019,"gayung":13020,"14470":13021,"bip":13022,"blun":13023,"blangke":13024,"dosen":13025,"16154":13026,"16113":13027,"sogo":13028,"sodo":13029,"pub":13030,"aira":13031,"pepa":13032,"kaligangsa":13033,"agrab":13034,"meo":13035,"marh":13036,"maryam":13037,"margam":13038,"karangdowo":13039,"karangpatri":13040,"mix":13041,"miroto":13042,"tepi":13043,"tepus":13044,"tebah":13045,"ptc":13046,"ptt":13047,"tunon":13048,"serui":13049,"puring":13050,"yoha":13051,"20153":13052,"20239":13053,"bey":13054,"berb":13055,"bert":13056,"berdik":13057,"bertais":13058,"kemet":13059,"cosm":13060,"gadai":13061,"028":13062,"duh":13063,"kuwar":13064,"padaherang":13065,"penum":13066,"penyu":13067,"denjalan":13068,"nabila":13069,"matra":13070,"sampa":13071,"samba":13072,"sambali":13073,"samata":13074,"reso":13075,"balongan":13076,"belin":13077,"kenten":13078,"sunrise":13079,"menak":13080,"menanti":13081,"bukateja":13082,"juara":13083,"binuang":13084,"struk":13085,"alauddin":13086,"40614":13087,"40562":13088,"jambore":13089,"25171":13090,"wera":13091,"sumbar":13092,"wonokriyo":13093,"bungsu":13094,"patt":13095,"tembak":13096,"28289":13097,"maharani":13098,"pusakan":13099,"kertas":13100,"satap":13101,"pamar":13102,"minyak":13103,"601":13104,"60172":13105,"kunjung":13106,"34b":13107,"indones":13108,"pengadilan":13109,"nurha":13110,"50141":13111,"50183":13112,"chang":13113,"kamasan":13114,"gando":13115,"sine":13116,"leteh":13117,"pedag":13118,"pedong":13119,"gerry":13120,"thaha":13121,"petug":13122,"regi":13123,"purwojati":13124,"kedungreja":13125,"kedungadem":13126,"munt":13127,"lempong":13128,"otak":13129,"febr":13130,"badean":13131,"sahadewa":13132,"janah":13133,"gambut":13134,"42116":13135,"pltd":13136,"perigi":13137,"476":13138,"pegand":13139,"caruban":13140,"jawabarat":13141,"plawa":13142,"60231":13143,"60242":13144,"tkit":13145,"mojoanyar":13146,"consultan":13147,"ilat":13148,"kasan":13149,"nongko":13150,"58a":13151,"hamzy":13152,"gemuh":13153,"ureu":13154,"margasuka":13155,"metr":13156,"67316":13157,"talama":13158,"labuang":13159,"demaan":13160,"998":13161,"kontr":13162,"swadharma":13163,"75117":13164,"ngablak":13165,"tondo":13166,"69a":13167,"69317":13168,"16435":13169,"16434":13170,"16437":13171,"cahya":13172,"glong":13173,"pore":13174,"pors":13175,"punta":13176,"ramanuju":13177,"cilawu":13178,"rinding":13179,"timungan":13180,"soew":13181,"afri":13182,"guli":13183,"tlogobendung":13184,"utoyo":13185,"13920":13186,"tumeng":13187,"12970":13188,"latul":13189,"jenggot":13190,"lampiri":13191,"darmaw":13192,"ranggamekar":13193,"reklame":13194,"unggung":13195,"carib":13196,"16916":13197,"cisaga":13198,"taubah":13199,"lela":13200,"citeu":13201,"commer":13202,"pagak":13203,"prestasi":13204,"kadip":13205,"centrum":13206,"ayem":13207,"weli":13208,"wirokerten":13209,"galik":13210,"stars":13211,"ciranjang":13212,"17320":13213,"tutwuri":13214,"jingga":13215,"anjir":13216,"khol":13217,"pucangsawit":13218,"special":13219,"istiwa":13220,"selogiri":13221,"selomerto":13222,"gegerk":13223,"klayan":13224,"meriem":13225,"15221":13226,"15225":13227,"kotes":13228,"kratonan":13229,"pamoy":13230,"irigasi":13231,"dharmaw":13232,"sapih":13233,"wiryo":13234,"bobotsari":13235,"blabak":13236,"parts":13237,"papango":13238,"ishlah":13239,"biromaru":13240,"amurang":13241,"cihanj":13242,"cindy":13243,"ardirejo":13244,"pemanc":13245,"rooms":13246,"purnaw":13247,"kelautan":13248,"siopat":13249,"nirmala":13250,"rampak":13251,"peneli":13252,"ballroom":13253,"kludan":13254,"cihaurgeulis":13255,"sukanagara":13256,"patehan":13257,"sabili":13258,"kalukuang":13259,"jilbab":13260,"patriot":13261,"infomedia":13262,"panambungan":13263,"pelopor":13264,"medaeng":13265,"kasomalang":13266,"tetebatu":13267,"lompoe":13268,"bugih":13269,"sabilul":13270,"kemlagi":13271,"kemlayan":13272,"rappokal":13273,"bonowarih":13274,"cipendawa":13275,"najwa":13276,"jumapolo":13277,"slogohimo":13278,"sutarto":13279,"dermaga":13280,"argasari":13281,"cikasungka":13282,"kretek":13283,"tinjomoyo":13284,"administrasi":13285,"heavenland":13286,"batukliang":13287,"kalinyamatan":13288,"pendopo":13289,"magic":13290,"leuwisadeng":13291,"google":13292,"pekutatan":13293,"pringgokusuman":13294,"batulicin":13295,"kemranjen":13296,"yabhinka":13297,"3kg":13298,"501":13299,"8d":13300,"9d":13301,"915":13302,"aju":13303,"abus":13304,"aula":13305,"bti":13306,"b15":13307,"c19":13308,"ceri":13309,"dut":13310,"dwij":13311,"eno":13312,"fron":13313,"faris":13314,"g9":13315,"gde":13316,"gpi":13317,"hd":13318,"hori":13319,"heni":13320,"iru":13321,"irama":13322,"jsm":13323,"jhoni":13324,"kpa":13325,"kind":13326,"khi":13327,"ktor":13328,"l2":13329,"lc":13330,"m3":13331,"mlong":13332,"mlaten":13333,"nr":13334,"ncole":13335,"pf":13336,"president":13337,"rungan":13338,"rhu":13339,"sasa":13340,"talan":13341,"wd":13342,"ww":13343,"wulu":13344,"yy":13345,"yuki":13346,"anjung":13347,"anim":13348,"ngle":13349,"ngrowo":13350,"ngrampal":13351,"rabb":13352,"ralili":13353,"atma":13354,"ambil":13355,"aldo":13356,"allah":13357,"alvin":13358,"kei":13359,"keram":13360,"kefam":13361,"kevin":13362,"kepadangan":13363,"keprabon":13364,"assy":13365,"noro":13366,"no16":13367,"noni":13368,"erwin":13369,"inves":13370,"insurance":13371,"rtm":13372,"cino":13373,"cici":13374,"cican":13375,"cisad":13376,"cifor":13377,"cikidang":13378,"elar":13379,"elisa":13380,"elpiji":13381,"akih":13382,"suc":13383,"suit":13384,"supl":13385,"korum":13386,"kosan":13387,"adang":13388,"adid":13389,"jayam":13390,"barong":13391,"barkah":13392,"baregbeg":13393,"embun":13394,"emplas":13395,"ulih":13396,"arayan":13397,"ridi":13398,"rich":13399,"tabar":13400,"taju":13401,"rw005":13402,"rw009":13403,"toar":13404,"tolo":13405,"topeng":13406,"tofa":13407,"torat":13408,"sic":13409,"simas":13410,"sijuk":13411,"sikep":13412,"perbon":13413,"perkeb":13414,"perhutani":13415,"tandun":13416,"tanralili":13417,"edam":13418,"eduk":13419,"pake":13420,"paker":13421,"bapa":13422,"bayang":13423,"selasih":13424,"panjalu":13425,"11170":13426,"saja":13427,"sabe":13428,"sagan":13429,"liong":13430,"lisin":13431,"ligung":13432,"boat":13433,"boko":13434,"atika":13435,"banja":13436,"banyak":13437,"layanan":13438,"robi":13439,"12d":13440,"12120":13441,"dagang":13442,"ise":13443,"isen":13444,"post":13445,"sesudah":13446,"ingi":13447,"moes":13448,"reh":13449,"hafiz":13450,"pasti":13451,"13110":13452,"jatirogo":13453,"jatiroto":13454,"15115":13455,"15134":13456,"gayo":13457,"biji":13458,"biasa":13459,"bijak":13460,"16118":13461,"sot":13462,"soul":13463,"sodong":13464,"batt":13465,"batul":13466,"baturan":13467,"tenggu":13468,"kalianyar":13469,"wita":13470,"wiru":13471,"wiwin":13472,"bonang":13473,"maro":13474,"marin":13475,"karangle":13476,"andalan":13477,"tugum":13478,"purbolinggo":13479,"you":13480,"yoto":13481,"yoyo":13482,"20147":13483,"maduk":13484,"madegon":13485,"gih":13486,"bebed":13487,"berangan":13488,"berkoh":13489,"mulgap":13490,"hardi":13491,"harmo":13492,"como":13493,"viyasa":13494,"kuras":13495,"pangong":13496,"sukalarang":13497,"palasah":13498,"pirus":13499,"pendawa":13500,"pulorejo":13501,"nago":13502,"sambo":13503,"rancah":13504,"cebongan":13505,"ress":13506,"bunar":13507,"mersi":13508,"binamu":13509,"priyayi":13510,"stra":13511,"alay":13512,"40181":13513,"selayur":13514,"tegowan":13515,"garung":13516,"sumahi":13517,"pemeri":13518,"beny":13519,"ikatan":13520,"teman":13521,"maloku":13522,"senin":13523,"senimp":13524,"tegalreja":13525,"tegalmunjul":13526,"durenan":13527,"bengawan":13528,"tradis":13529,"banjarjo":13530,"457":13531,"45131":13532,"kertasem":13533,"betara":13534,"beteng":13535,"warungasem":13536,"minton":13537,"khatul":13538,"60175":13539,"60124":13540,"60173":13541,"sidokerto":13542,"sidokepung":13543,"jaha":13544,"bumijawa":13545,"mekargalih":13546,"36124":13547,"55571":13548,"jangkrik":13549,"kalbar":13550,"sarj":13551,"kapl":13552,"langkap":13553,"grab":13554,"nurs":13555,"cane":13556,"setiabudhi":13557,"chat":13558,"program":13559,"rawalie":13560,"fac":13561,"geni":13562,"gendi":13563,"gentong":13564,"kleng":13565,"pasirmulya":13566,"karaya":13567,"575":13568,"57a":13569,"petang":13570,"65138":13571,"65145":13572,"65162":13573,"brit":13574,"bringan":13575,"393":13576,"399":13577,"purabaya":13578,"purawiwitan":13579,"lembar":13580,"bahri":13581,"bahtera":13582,"sulah":13583,"watuli":13584,"badminton":13585,"gambringan":13586,"471":13587,"475":13588,"rengg":13589,"renged":13590,"andakan":13591,"48b":13592,"52192":13593,"59b":13594,"laser":13595,"tekh":13596,"teku":13597,"60271":13598,"60291":13599,"60298":13600,"makanan":13601,"584":13602,"bill":13603,"sppd":13604,"ketur":13605,"54a":13606,"61a":13607,"64182":13608,"63a":13609,"banyubiru":13610,"sukarukun":13611,"shang":13612,"784":13613,"lengkap":13614,"demong":13615,"tonatan":13616,"brigjend":13617,"11410":13618,"40261":13619,"40264":13620,"nept":13621,"guruh":13622,"jemen":13623,"791":13624,"paragon":13625,"kredit":13626,"sidak":13627,"11330":13628,"12750":13629,"turun":13630,"soeb":13631,"soebra":13632,"cappu":13633,"sawoo":13634,"gulak":13635,"juntin":13636,"acara":13637,"girsang":13638,"lencir":13639,"nyal":13640,"porisgaga":13641,"kandanghaur":13642,"12860":13643,"lapai":13644,"61253":13645,"angkek":13646,"lesung":13647,"16915":13648,"petog":13649,"50231":13650,"10740":13651,"sitimulyo":13652,"kutil":13653,"zamrud":13654,"foresta":13655,"core":13656,"sukamajuk":13657,"wuluhan":13658,"punge":13659,"syahr":13660,"starbu":13661,"rajin":13662,"spec":13663,"salaf":13664,"srandakan":13665,"dayeuhluhur":13666,"61124":13667,"suryowijayan":13668,"kaliawi":13669,"21411":13670,"brantas":13671,"lady":13672,"mendalo":13673,"20221":13674,"fahri":13675,"fahmi":13676,"nunu":13677,"cinangneng":13678,"playstation":13679,"rezky":13680,"prambatan":13681,"41211":13682,"pamij":13683,"cimanuk":13684,"edelw":13685,"stationery":13686,"rambitan":13687,"brondong":13688,"manajemen":13689,"paguy":13690,"sampoerna":13691,"pindrikan":13692,"61174":13693,"datacomm":13694,"laila":13695,"pelepah":13696,"batipuh":13697,"sembungharjo":13698,"muslimin":13699,"winongo":13700,"radial":13701,"ciwandan":13702,"mantingan":13703,"tarbiy":13704,"frozen":13705,"plemahan":13706,"enterta":13707,"asirna":13708,"pelambuan":13709,"onyx":13710,"batalyon":13711,"purwadadi":13712,"kedewatan":13713,"cimenyan":13714,"elemen":13715,"lhokseumawe":13716,"bojonegara":13717,"kawedanan":13718,"kasepuhan":13719,"gumawang":13720,"stokis":13721,"paenre":13722,"suryatmajan":13723,"repair":13724,"victoria":13725,"kacamata":13726,"purwaharja":13727,"jogonalan":13728,"irwan":13729,"klangenan":13730,"kebungson":13731,"bajulmati":13732,"berdikari":13733,"petugas":13734,"caribbean":13735,"rappokalling":13736,"mlonggo":13737,"korumba":13738,"karanglewas":13739,"madegondo":13740,"pangongangan":13741,"tegowanu":13742,"senimpik":13743,"kertasemaya":13744,"1g":13745,"2f":13746,"325":13747,"418":13748,"438":13749,"6d":13750,"735":13751,"ajuh":13752,"b16":13753,"dya":13754,"det":13755,"dji":13756,"dhani":13757,"eti":13758,"ekeh":13759,"f9":13760,"fen":13761,"fed":13762,"fis":13763,"fata":13764,"fly":13765,"flash":13766,"g5":13767,"gki":13768,"gst":13769,"ghani":13770,"huri":13771,"hera":13772,"if":13773,"ien":13774,"jk":13775,"jt":13776,"k1":13777,"kwad":13778,"mw":13779,"mlang":13780,"malim":13781,"mloyo":13782,"nung":13783,"pmi":13784,"qul":13785,"r2":13786,"rut":13787,"rri":13788,"rph":13789,"sci":13790,"ska":13791,"ster":13792,"srum":13793,"spot":13794,"skb":13795,"skadi":13796,"tx":13797,"xo":13798,"yl":13799,"yel":13800,"yor":13801,"arni":13802,"ngum":13803,"ngipik":13804,"raba":13805,"rajak":13806,"atsum":13807,"ameri":13808,"alp":13809,"albo":13810,"alhid":13811,"yayuk":13812,"kebul":13813,"kehutan":13814,"kerambitan":13815,"asung":13816,"astri":13817,"assalam":13818,"no4":13819,"no10":13820,"nomi":13821,"eria":13822,"enk":13823,"inum":13824,"rt12":13825,"aharja":13826,"cida":13827,"cikam":13828,"cibor":13829,"cidurian":13830,"civic":13831,"cipakat":13832,"elir":13833,"akm":13834,"akik":13835,"titin":13836,"supi":13837,"komet":13838,"kotalama":13839,"ondo":13840,"adel":13841,"jac":13842,"jaw":13843,"jayar":13844,"bare":13845,"barisan":13846,"estu":13847,"untu":13848,"rw001":13849,"toli":13850,"tobat":13851,"karas":13852,"karungan":13853,"karamat":13854,"maa":13855,"maes":13856,"maarif":13857,"sipo":13858,"sisw":13859,"didalam":13860,"permiri":13861,"eden":13862,"paan":13863,"bajo":13864,"babi":13865,"bawan":13866,"bach":13867,"bapp":13868,"bayangkara":13869,"panah":13870,"pander":13871,"11150":13872,"ukhu":13873,"tambangan":13874,"saputra":13875,"saph":13876,"saombo":13877,"lier":13878,"boh":13879,"atana":13880,"asik":13881,"rog":13882,"manyu":13883,"mannu":13884,"seja":13885,"sebong":13886,"mog":13887,"mocha":13888,"masturi":13889,"reog":13890,"haj":13891,"13250":13892,"15111":13893,"15112":13894,"15126":13895,"15127":13896,"15334":13897,"idul":13898,"waja":13899,"bilano":13900,"gos":13901,"dongan":13902,"16d":13903,"songan":13904,"deur":13905,"decor":13906,"aie":13907,"aice":13908,"17123":13909,"peut":13910,"pebti":13911,"pekarungan":13912,"bakul":13913,"kalipare":13914,"kaliombo":13915,"kalibalau":13916,"kalikotes":13917,"jika":13918,"woi":13919,"anggadi":13920,"iiic":13921,"karangkobar":13922,"terep":13923,"tubuh":13924,"lekop":13925,"20154":13926,"20157":13927,"20241":13928,"20355":13929,"gik":13930,"giras":13931,"bering":13932,"beruh":13933,"berua":13934,"berkas":13935,"seman":13936,"sempus":13937,"kemena":13938,"kement":13939,"kemakm":13940,"mult":13941,"hino":13942,"hargo":13943,"coin":13944,"cozy":13945,"luw":13946,"ciput":13947,"kiar":13948,"024":13949,"victory":13950,"kuah":13951,"kupi":13952,"pangsit":13953,"sukadiri":13954,"sukasirna":13955,"padala":13956,"gedawang":13957,"pila":13958,"peneng":13959,"pulisen":13960,"naba":13961,"kebonpedes":13962,"matto":13963,"prac":13964,"prapen":13965,"ngantang":13966,"menes":13967,"jud":13968,"merry":13969,"binj":13970,"gangin":13971,"melan":13972,"408":13973,"40125":13974,"40153":13975,"40123":13976,"darun":13977,"cema":13978,"salwa":13979,"galunggung":13980,"garon":13981,"garasi":13982,"beni":13983,"benih":13984,"lamtemen":13985,"pesta":13986,"pesakih":13987,"senter":13988,"tegalgede":13989,"lorena":13990,"puseh":13991,"pustaka":13992,"cakraw":13993,"hany":13994,"sata":13995,"satwa":13996,"pamari":13997,"mindi":13998,"60153":13999,"60113":14000,"sungailiat":14001,"nida":14002,"sanamekar":14003,"jangka":14004,"jangkar":14005,"grill":14006,"kpkb":14007,"pengurus":14008,"pengacara":14009,"kutabanjarnegara":14010,"canon":14011,"50148":14012,"pasifik":14013,"promo":14014,"rawati":14015,"tril":14016,"trian":14017,"tridadi":14018,"tridh":14019,"trimurti":14020,"residance":14021,"prana":14022,"prona":14023,"nusani":14024,"fais":14025,"favor":14026,"mulyojati":14027,"gending":14028,"lingsar":14029,"573":14030,"delame":14031,"deplu":14032,"regar":14033,"65174":14034,"bring":14035,"396":14036,"pinyuh":14037,"maybank":14038,"468":14039,"46181":14040,"pahoman":14041,"42b":14042,"gatsu":14043,"ples":14044,"5600":14045,"43b":14046,"basen":14047,"wergu":14048,"carre":14049,"cash":14050,"jakpus":14051,"80111":14052,"60237":14053,"conta":14054,"lt1":14055,"gemo":14056,"49a":14057,"candikuning":14058,"70122":14059,"70654":14060,"moncong":14061,"mondokan":14062,"tales":14063,"taluk":14064,"dale":14065,"sangku":14066,"sedan":14067,"sudajaya":14068,"sukamenan":14069,"konsul":14070,"konstruk":14071,"megang":14072,"75a":14073,"ngajung":14074,"kaharu":14075,"blog":14076,"88a":14077,"bligo":14078,"sadha":14079,"gilimanuk":14080,"dipta":14081,"40215":14082,"40228":14083,"40241":14084,"tranboge":14085,"heli":14086,"syukur":14087,"maribaya":14088,"fattah":14089,"batavia":14090,"laksanamekar":14091,"11230":14092,"hall":14093,"15318":14094,"krea":14095,"taki":14096,"12780":14097,"turki":14098,"tuki":14099,"enanu":14100,"widoro":14101,"pucungrejo":14102,"bantaran":14103,"afd":14104,"jamie":14105,"balecatur":14106,"nyok":14107,"tirtomoyo":14108,"united":14109,"12920":14110,"lateng":14111,"90225":14112,"90243":14113,"lahunda":14114,"malangjiwan":14115,"reksa":14116,"ps3":14117,"16968":14118,"suroboyo":14119,"turida":14120,"rengasde":14121,"tarikolot":14122,"50229":14123,"50268":14124,"50273":14125,"dirgan":14126,"10330":14127,"ikhwan":14128,"15520":14129,"pagesa":14130,"perabot":14131,"gudangkahuripan":14132,"harian":14133,"tawangmas":14134,"dauhwaru":14135,"lemahmekar":14136,"gumu":14137,"gumelar":14138,"natu":14139,"swam":14140,"break":14141,"gist":14142,"sanden":14143,"mlatibaru":14144,"firman":14145,"jogya":14146,"jogjogan":14147,"gampang":14148,"effe":14149,"41311":14150,"41374":14151,"casabl":14152,"sabbang":14153,"reddoor":14154,"brangsong":14155,"muht":14156,"sruni":14157,"guwosari":14158,"podomoro":14159,"untasan":14160,"kawanua":14161,"palangkaraya":14162,"brani":14163,"situsari":14164,"anyelir":14165,"dharmawangsa":14166,"trunojoyo":14167,"20224":14168,"20227":14169,"reflex":14170,"gabuswetan":14171,"kejapanan":14172,"supriadi":14173,"gantarang":14174,"wongsorejo":14175,"atlantic":14176,"kristal":14177,"faiz":14178,"offset":14179,"kepolorejo":14180,"jompo":14181,"penebel":14182,"stoc":14183,"pameuntasan":14184,"panancangan":14185,"ndut":14186,"bappebti":14187,"suhud":14188,"kotamatsum":14189,"salamanmloyo":14190,"fachrudin":14191,"biraeng":14192,"pulubala":14193,"sambongjaya":14194,"muslimat":14195,"volley":14196,"lempuyangan":14197,"geudong":14198,"68416":14199,"40921":14200,"gendut":14201,"panimbang":14202,"kasembon":14203,"crispy":14204,"juwiring":14205,"mugirejo":14206,"kestalan":14207,"sblm":14208,"premium":14209,"patokbeusi":14210,"ketoprak":14211,"padepokan":14212,"segitiga":14213,"ngelom":14214,"perlengkapan":14215,"massage":14216,"empoang":14217,"brongg":14218,"seyegan":14219,"famili":14220,"cirangrang":14221,"sholihin":14222,"unisba":14223,"bridge":14224,"kariangau":14225,"rajamandala":14226,"batealit":14227,"surodakan":14228,"pengembangan":14229,"cepokomulyo":14230,"randublatung":14231,"blangkejeren":14232,"penumping":14233,"pusakanagara":14234,"kefamenanu":14235,"sumahilang":14236,"khatulistiwa":14237,"skadik":14238,"kebulen":14239,"kehutanan":14240,"sempusari":14241,"nusaniwe":14242,"delameta":14243,"sukamenanti":14244,"lahundape":14245,"019":14246,"326":14247,"3rd":14248,"4e":14249,"414":14250,"925":14251,"b13":14252,"btr":14253,"bpp":14254,"cra":14255,"cci":14256,"dz":14257,"d10":14258,"d14":14259,"dangan":14260,"dho":14261,"dje":14262,"dlimo":14263,"djaja":14264,"e10":14265,"eben":14266,"frame":14267,"feli":14268,"geng":14269,"hh":14270,"hah":14271,"hes":14272,"ion":14273,"jb":14274,"l1":14275,"ln":14276,"lur":14277,"lata":14278,"lkm":14279,"mda":14280,"nut":14281,"obor":14282,"psm":14283,"rend":14284,"skate":14285,"vana":14286,"yn":14287,"yama":14288,"yukum":14289,"arn":14290,"armi":14291,"arco":14292,"ngo":14293,"ngra":14294,"ngli":14295,"ngep":14296,"angsau":14297,"rajo":14298,"rafa":14299,"racing":14300,"raye":14301,"ateng":14302,"assi":14303,"asean":14304,"noja":14305,"ener":14306,"urut":14307,"inem":14308,"cipan":14309,"cige":14310,"cijambe":14311,"ciwalen":14312,"ciasihan":14313,"elt":14314,"elsa":14315,"elmitra":14316,"akur":14317,"titik":14318,"tiring":14319,"subu":14320,"kocok":14321,"onan":14322,"ads":14323,"adya":14324,"bubuk":14325,"buyung":14326,"jawar":14327,"jauan":14328,"baratan":14329,"utui":14330,"emak":14331,"uler":14332,"orga":14333,"rico":14334,"riki":14335,"ricky":14336,"riady":14337,"tajem":14338,"okali":14339,"untuk":14340,"iid":14341,"kao":14342,"kabung":14343,"kabau":14344,"rw006":14345,"rw007":14346,"kelan":14347,"kelik":14348,"tobing":14349,"karm":14350,"karna":14351,"sikan":14352,"silah":14353,"sipil":14354,"dig":14355,"dira":14356,"diag":14357,"jobok":14358,"perman":14359,"perbat":14360,"baim":14361,"sell":14362,"sella":14363,"pann":14364,"pantek":14365,"11d":14366,"ukm":14367,"tamala":14368,"tambah":14369,"sabak":14370,"sapuran":14371,"liem":14372,"lita":14373,"limun":14374,"libra":14375,"ligh":14376,"lift":14377,"ating":14378,"banteran":14379,"baratu":14380,"indy":14381,"indal":14382,"10350":14383,"lain":14384,"lawa":14385,"roba":14386,"romang":14387,"dafa":14388,"islah":14389,"mano":14390,"poi":14391,"polik":14392,"sekel":14393,"serai":14394,"seutui":14395,"lopo":14396,"moe":14397,"warsito":14398,"masud":14399,"reu":14400,"hab":14401,"13130":14402,"15117":14403,"15142":14404,"ido":14405,"idano":14406,"wain":14407,"wawo":14408,"dodo":14409,"16132":14410,"sob":14411,"sosr":14412,"soegi":14413,"dept":14414,"17550":14415,"pea":14416,"peuna":14417,"kalibawang":14418,"mey":14419,"will":14420,"muin":14421,"wojo":14422,"boneka":14423,"marem":14424,"yuat":14425,"anggut":14426,"anggun":14427,"karangkates":14428,"tertek":14429,"terboyo":14430,"mig":14431,"andalu":14432,"teker":14433,"leba":14434,"purbaratu":14435,"20133":14436,"20362":14437,"20551":14438,"beyan":14439,"beura":14440,"bersinar":14441,"pakul":14442,"pakup":14443,"hip":14444,"harto":14445,"parpo":14446,"hort":14447,"cogreg":14448,"luke":14449,"gada":14450,"kib":14451,"kilat":14452,"vivi":14453,"vihara":14454,"kuj":14455,"kurai":14456,"kuaro":14457,"pangka":14458,"adika":14459,"paleng":14460,"palka":14461,"padarin":14462,"sawe":14463,"sawang":14464,"piai":14465,"penta":14466,"torgam":14467,"samr":14468,"cera":14469,"prada":14470,"jarakan":14471,"kentang":14472,"sunia":14473,"menciri":14474,"jufri":14475,"binti":14476,"mustofa":14477,"melaya":14478,"40113":14479,"jamak":14480,"jambo":14481,"daro":14482,"darmasa":14483,"galar":14484,"garn":14485,"garata":14486,"sumbul":14487,"kramp":14488,"wonokoyo":14489,"dungingi":14490,"besk":14491,"abas":14492,"lamba":14493,"28266":14494,"gebog":14495,"senti":14496,"senyum":14497,"wandi":14498,"mahas":14499,"mahak":14500,"burjo":14501,"pusri":14502,"35373":14503,"45b":14504,"kertek":14505,"kertonegoro":14506,"27c":14507,"tarat":14508,"sukom":14509,"minu":14510,"minto":14511,"mineral":14512,"60114":14513,"60136":14514,"60141":14515,"60171":14516,"cine":14517,"imb":14518,"langke":14519,"kunden":14520,"kunyit":14521,"342":14522,"pengk":14523,"jene":14524,"prog":14525,"prono":14526,"mbk":14527,"nusant":14528,"bren":14529,"faz":14530,"31b":14531,"estro":14532,"lingo":14533,"sumbersuko":14534,"sumbersekar":14535,"388":14536,"damy":14537,"tht":14538,"572":14539,"576":14540,"della":14541,"petro":14542,"petulu":14543,"65118":14544,"65158":14545,"lema":14546,"lembongan":14547,"srim":14548,"sriga":14549,"fee":14550,"44b":14551,"daha":14552,"indomie":14553,"seth":14554,"plamp":14555,"plasa":14556,"surade":14557,"474":14558,"basket":14559,"dongko":14560,"481":14561,"pegawai":14562,"foam":14563,"pluis":14564,"80116":14565,"sindan":14566,"sekur":14567,"60251":14568,"60263":14569,"60273":14570,"60292":14571,"mojopanggung":14572,"huang":14573,"tugujaya":14574,"64112":14575,"trin":14576,"metland":14577,"708":14578,"70a":14579,"66a":14580,"66121":14581,"dalu":14582,"sher":14583,"783":14584,"78115":14585,"lengayang":14586,"sinarmas":14587,"girim":14588,"bypass":14589,"blos":14590,"90174":14591,"90552":14592,"sadewa":14593,"andika":14594,"primagama":14595,"lokal":14596,"40294":14597,"tahfid":14598,"tunggu":14599,"jemekeh":14600,"pringsurat":14601,"pringgarata":14602,"kolong":14603,"kukuh":14604,"irida":14605,"15320":14606,"limbung":14607,"sugiono":14608,"kopti":14609,"mobilindo":14610,"krindo":14611,"pakuon":14612,"capital":14613,"pdk":14614,"joyotakan":14615,"campago":14616,"kombe":14617,"nuban":14618,"cicale":14619,"plosokerep":14620,"munggut":14621,"12930":14622,"indust":14623,"malili":14624,"90232":14625,"manguns":14626,"ampeldento":14627,"dadapan":14628,"bulukerto":14629,"rekl":14630,"lesti":14631,"phon":14632,"carita":14633,"agape":14634,"16912":14635,"lumbang":14636,"kerato":14637,"50274":14638,"lely":14639,"kumon":14640,"kumpeh":14641,"singosaren":14642,"nusanive":14643,"15220":14644,"boyola":14645,"merapin":14646,"nanggeleng":14647,"jurangmangu":14648,"namor":14649,"yosomulyo":14650,"jawilan":14651,"pinggol":14652,"bbm":14653,"tutup":14654,"80224":14655,"sports":14656,"kutosari":14657,"20217":14658,"genuksari":14659,"salafiyah":14660,"enium":14661,"seloaji":14662,"siska":14663,"marusu":14664,"cikancung":14665,"aqiq":14666,"onohu":14667,"meriah":14668,"achmad":14669,"rejasari":14670,"talawi":14671,"paytren":14672,"mendut":14673,"tatto":14674,"fans":14675,"zakse":14676,"mandiraja":14677,"pekajangan":14678,"yonta":14679,"outdoor":14680,"kodepos":14681,"lalapan":14682,"jogoyudan":14683,"henny":14684,"platinum":14685,"pogalan":14686,"sirnajaya":14687,"syams":14688,"kapau":14689,"katibung":14690,"tempelan":14691,"sugeng":14692,"anduonohu":14693,"kleak":14694,"titipkan":14695,"volly":14696,"fatimah":14697,"sipatana":14698,"pasuruhan":14699,"40615":14700,"osowilangun":14701,"parahy":14702,"parahita":14703,"militer":14704,"kekeran":14705,"kresna":14706,"eboni":14707,"statio":14708,"pemberd":14709,"ainul":14710,"mrican":14711,"bowl":14712,"blessing":14713,"pensiunan":14714,"grinting":14715,"rancakole":14716,"pampangan":14717,"peralatan":14718,"pemongkong":14719,"krandegan":14720,"siranindi":14721,"natasha":14722,"ocean":14723,"macorawalie":14724,"perkemahan":14725,"gampengrejo":14726,"sagalaherang":14727,"lempongsari":14728,"emplasmen":14729,"juntinyuat":14730,"starbucks":14731,"srumbung":14732,"ciborelang":14733,"anggadita":14734,"penengahan":14735,"cakrawala":14736,"pamarican":14737,"container":14738,"konstruksi":14739,"reddoorz":14740,"jobokuto":14741,"peunayong":14742,"padarincang":14743,"torgamba":14744,"darmasaba":14745,"1st":14746,"415":14747,"518":14748,"525":14749,"535":14750,"544":14751,"643":14752,"7d":14753,"714":14754,"946":14755,"],":14756,"aes":14757,"aus":14758,"a13":14759,"a18":14760,"awir":14761,"cf":14762,"c16":14763,"cris":14764,"cfc":14765,"eya":14766,"eta":14767,"event":14768,"f10":14769,"fala":14770,"feri":14771,"fani":14772,"gren":14773,"heng":14774,"hua":14775,"hoka":14776,"hine":14777,"i1":14778,"iin":14779,"ichi":14780,"jant":14781,"jitu":14782,"kwali":14783,"laran":14784,"masih":14785,"nek":14786,"nini":14787,"nalum":14788,"o2":14789,"ou":14790,"olia":14791,"prah":14792,"pharma":14793,"ryan":14794,"rutan":14795,
[...]
